{
  "version": "1.0",
  "truncation": null,
  "padding": null,
  "added_tokens": [
    {
      "id": 0,
      "content": "[UNK]",
      "single_word": false,
      "lstrip": false,
      "rstrip": false,
      "normalized": false,
      "special": true
    },
    {
      "id": 1,
      "content": "<|titre|>",
      "single_word": false,
      "lstrip": false,
      "rstrip": false,
      "normalized": false,
      "special": true
    },
    {
      "id": 2,
      "content": "<|sep|>",
      "single_word": false,
      "lstrip": false,
      "rstrip": false,
      "normalized": false,
      "special": true
    }
  ],
  "normalizer": null,
  "pre_tokenizer": {
    "type": "Whitespace"
  },
  "post_processor": null,
  "decoder": null,
  "model": {
    "type": "BPE",
    "dropout": null,
    "unk_token": null,
    "continuing_subword_prefix": null,
    "end_of_word_suffix": null,
    "fuse_unk": false,
    "byte_fallback": false,
    "ignore_merges": false,
    "vocab": {
      "[UNK]": 0,
      "<|titre|>": 1,
      "<|sep|>": 2,
      "!": 3,
      "\"": 4,
      "#": 5,
      "'": 6,
      "(": 7,
      ")": 8,
      "*": 9,
      ",": 10,
      "-": 11,
      ".": 12,
      "0": 13,
      "1": 14,
      "2": 15,
      "3": 16,
      "4": 17,
      "5": 18,
      "6": 19,
      "7": 20,
      "8": 21,
      "9": 22,
      ":": 23,
      ";": 24,
      "<": 25,
      ">": 26,
      "?": 27,
      "[": 28,
      "]": 29,
      "a": 30,
      "b": 31,
      "c": 32,
      "d": 33,
      "e": 34,
      "f": 35,
      "g": 36,
      "h": 37,
      "i": 38,
      "j": 39,
      "k": 40,
      "l": 41,
      "m": 42,
      "n": 43,
      "o": 44,
      "p": 45,
      "q": 46,
      "r": 47,
      "s": 48,
      "t": 49,
      "u": 50,
      "v": 51,
      "w": 52,
      "x": 53,
      "y": 54,
      "z": 55,
      "|": 56,
      "": 57,
      "": 58,
      "«": 59,
      "°": 60,
      "»": 61,
      "à": 62,
      "â": 63,
      "ç": 64,
      "è": 65,
      "é": 66,
      "ê": 67,
      "ë": 68,
      "î": 69,
      "ï": 70,
      "ô": 71,
      "ù": 72,
      "û": 73,
      "ü": 74,
      "œ": 75,
      "‘": 76,
      "’": 77,
      "en": 78,
      "le": 79,
      "ou": 80,
      "re": 81,
      "ai": 82,
      "on": 83,
      "de": 84,
      "qu": 85,
      "an": 86,
      "er": 87,
      "it": 88,
      "es": 89,
      "au": 90,
      "et": 91,
      "il": 92,
      "un": 93,
      "la": 94,
      "ent": 95,
      "se": 96,
      "oi": 97,
      "eu": 98,
      "ar": 99,
      "ait": 100,
      "ch": 101,
      "que": 102,
      "our": 103,
      "te": 104,
      "ce": 105,
      "or": 106,
      "les": 107,
      "ne": 108,
      "ant": 109,
      "is": 110,
      "in": 111,
      "pr": 112,
      "ous": 113,
      "tre": 114,
      "om": 115,
      "ur": 116,
      "as": 117,
      "me": 118,
      "ais": 119,
      "lu": 120,
      "tr": 121,
      "son": 122,
      "si": 123,
      "est": 124,
      "av": 125,
      "par": 126,
      "ien": 127,
      "at": 128,
      "ge": 129,
      "<|": 130,
      "je": 131,
      "|>": 132,
      "des": 133,
      "al": 134,
      "tou": 135,
      "du": 136,
      "ans": 137,
      "sa": 138,
      "lle": 139,
      "ét": 140,
      "pour": 141,
      "qui": 142,
      "vous": 143,
      "ir": 144,
      "con": 145,
      "pas": 146,
      "eux": 147,
      "ain": 148,
      "ort": 149,
      "li": 150,
      "une": 151,
      "am": 152,
      "dit": 153,
      "tit": 154,
      "vo": 155,
      "eur": 156,
      "oin": 157,
      "com": 158,
      "titre": 159,
      "cr": 160,
      "di": 161,
      "end": 162,
      "tout": 163,
      "plu": 164,
      "aux": 165,
      "leur": 166,
      "..": 167,
      "mp": 168,
      "ouv": 169,
      "ois": 170,
      "vi": 171,
      "ère": 172,
      "lui": 173,
      "dé": 174,
      "gr": 175,
      "ont": 176,
      "su": 177,
      "ci": 178,
      "plus": 179,
      "ma": 180,
      "ser": 181,
      "aire": 182,
      "ap": 183,
      "ment": 184,
      "ab": 185,
      "ut": 186,
      "bien": 187,
      "ces": 188,
      "sur": 189,
      "che": 190,
      "ons": 191,
      "fait": 192,
      "elle": 193,
      "os": 194,
      "and": 195,
      "cet": 196,
      "dans": 197,
      "autre": 198,
      "mon": 199,
      "oup": 200,
      "és": 201,
      "peu": 202,
      "ff": 203,
      "aut": 204,
      "mais": 205,
      "ses": 206,
      "nous": 207,
      "be": 208,
      "gn": 209,
      "res": 210,
      "jour": 211,
      "ri": 212,
      "aient": 213,
      "pu": 214,
      "quel": 215,
      "ils": 216,
      "mi": 217,
      "ac": 218,
      "ux": 219,
      "age": 220,
      "ée": 221,
      "cour": 222,
      "ens": 223,
      "mes": 224,
      "pro": 225,
      "ér": 226,
      "sep": 227,
      "oir": 228,
      "pe": 229,
      "gu": 230,
      "don": 231,
      "ver": 232,
      "oint": 233,
      "pa": 234,
      "ot": 235,
      "ier": 236,
      "était": 237,
      "per": 238,
      "point": 239,
      "us": 240,
      "ille": 241,
      "ie": 242,
      "oit": 243,
      "sans": 244,
      "cette": 245,
      "tant": 246,
      "co": 247,
      "ger": 248,
      "moi": 249,
      "tous": 250,
      "ure": 251,
      "mal": 252,
      "ôt": 253,
      "pl": 254,
      "ard": 255,
      "cor": 256,
      "ré": 257,
      "ter": 258,
      "ez": 259,
      "ti": 260,
      "dis": 261,
      "enf": 262,
      "ès": 263,
      "deux": 264,
      "cher": 265,
      "hom": 266,
      "ême": 267,
      "puis": 268,
      "fut": 269,
      "main": 270,
      "ren": 271,
      "cer": 272,
      "bon": 273,
      "mar": 274,
      "quelque": 275,
      "temp": 276,
      "comme": 277,
      "car": 278,
      "no": 279,
      "ex": 280,
      "man": 281,
      "....": 282,
      "faire": 283,
      "gens": 284,
      "ve": 285,
      "tu": 286,
      "mb": 287,
      "ec": 288,
      "fort": 289,
      "ra": 290,
      "sont": 291,
      "avait": 292,
      "ût": 293,
      "même": 294,
      "asse": 295,
      "ître": 296,
      "aus": 297,
      "avec": 298,
      "fr": 299,
      "out": 300,
      "ul": 301,
      "être": 302,
      "ni": 303,
      "là": 304,
      "fit": 305,
      "tes": 306,
      "vre": 307,
      "emp": 308,
      "ph": 309,
      "jours": 310,
      "ête": 311,
      "orte": 312,
      "homme": 313,
      "ine": 314,
      "ose": 315,
      "rais": 316,
      "able": 317,
      "leurs": 318,
      "ven": 319,
      "ance": 320,
      "voy": 321,
      "lé": 322,
      "br": 323,
      "prit": 324,
      "ins": 325,
      "eurs": 326,
      "temps": 327,
      "endre": 328,
      "ag": 329,
      "coup": 330,
      "faut": 331,
      "oy": 332,
      "trouv": 333,
      "entre": 334,
      "vie": 335,
      "lon": 336,
      "notre": 337,
      "mé": 338,
      "eut": 339,
      "ple": 340,
      "vou": 341,
      "ants": 342,
      "beau": 343,
      "rien": 344,
      "moin": 345,
      "lait": 346,
      "quand": 347,
      "ju": 348,
      "loup": 349,
      "quoi": 350,
      "lo": 351,
      "non": 352,
      "met": 353,
      "peut": 354,
      "ts": 355,
      "bre": 356,
      "dr": 357,
      "ani": 358,
      "maître": 359,
      "dou": 360,
      "hu": 361,
      "sé": 362,
      "vit": 363,
      "vers": 364,
      "sort": 365,
      "tour": 366,
      "ler": 367,
      "lais": 368,
      "cu": 369,
      "onn": 370,
      "port": 371,
      "va": 372,
      "voir": 373,
      "nu": 374,
      "eure": 375,
      "vient": 376,
      "part": 377,
      "chez": 378,
      "op": 379,
      "em": 380,
      "voi": 381,
      "jet": 382,
      "int": 383,
      "ob": 384,
      "ents": 385,
      "aff": 386,
      "fin": 387,
      "fais": 388,
      "té": 389,
      "pit": 390,
      "aine": 391,
      "toujours": 392,
      "votre": 393,
      "dire": 394,
      "cert": 395,
      "pre": 396,
      "grand": 397,
      "oire": 398,
      "ion": 399,
      "jus": 400,
      "sour": 401,
      "chose": 402,
      "att": 403,
      "ainsi": 404,
      "dieux": 405,
      "so": 406,
      "tel": 407,
      "près": 408,
      "ats": 409,
      "donc": 410,
      "fois": 411,
      "gne": 412,
      "nos": 413,
      "ang": 414,
      "comm": 415,
      "rent": 416,
      "ité": 417,
      "ors": 418,
      "iens": 419,
      "toute": 420,
      "contre": 421,
      "renard": 422,
      "for": 423,
      "ât": 424,
      "chac": 425,
      "pris": 426,
      "dieu": 427,
      "ite": 428,
      "ord": 429,
      "aussi": 430,
      "moins": 431,
      "où": 432,
      "rait": 433,
      "sou": 434,
      "pri": 435,
      "trop": 436,
      "mer": 437,
      "sent": 438,
      "ay": 439,
      "fem": 440,
      "dev": 441,
      "chacun": 442,
      "dont": 443,
      "né": 444,
      "ble": 445,
      "pet": 446,
      "lar": 447,
      "celui": 448,
      "ber": 449,
      "ire": 450,
      "mis": 451,
      "trait": 452,
      "dre": 453,
      "el": 454,
      "fi": 455,
      "pend": 456,
      "pos": 457,
      "char": 458,
      "fon": 459,
      "ence": 460,
      "fer": 461,
      "ign": 462,
      "mort": 463,
      "semb": 464,
      "mieux": 465,
      "eût": 466,
      "mot": 467,
      "rai": 468,
      "der": 469,
      "esprit": 470,
      "illes": 471,
      "lion": 472,
      "enfin": 473,
      "cou": 474,
      "font": 475,
      "gent": 476,
      "amour": 477,
      "imp": 478,
      "souv": 479,
      "vois": 480,
      "encor": 481,
      "certain": 482,
      "eau": 483,
      "sant": 484,
      "chat": 485,
      "sage": 486,
      "jam": 487,
      "roi": 488,
      "prend": 489,
      "pau": 490,
      "donn": 491,
      "sait": 492,
      "sous": 493,
      "ques": 494,
      "affaire": 495,
      "femme": 496,
      "heure": 497,
      "tent": 498,
      "its": 499,
      "ilà": 500,
      "pré": 501,
      "voilà": 502,
      "ds": 503,
      "pou": 504,
      "sau": 505,
      "cela": 506,
      "jamais": 507,
      "aille": 508,
      "ayant": 509,
      "pendant": 510,
      "pen": 511,
      "rat": 512,
      "sit": 513,
      "prin": 514,
      "èrent": 515,
      "rer": 516,
      "irent": 517,
      "sitôt": 518,
      "ale": 519,
      "ca": 520,
      "cent": 521,
      "raison": 522,
      "po": 523,
      "pla": 524,
      "père": 525,
      "pie": 526,
      "sin": 527,
      "vent": 528,
      "seul": 529,
      "urs": 530,
      "suis": 531,
      "gar": 532,
      "som": 533,
      "tom": 534,
      "erre": 535,
      "avoir": 536,
      "vos": 537,
      "mit": 538,
      "nouv": 539,
      "oc": 540,
      "ps": 541,
      "sais": 542,
      "ten": 543,
      "tête": 544,
      "lieu": 545,
      "app": 546,
      "assez": 547,
      "jupit": 548,
      "jupiter": 549,
      "soin": 550,
      "soit": 551,
      "uit": 552,
      "tra": 553,
      "bout": 554,
      "fa": 555,
      "gé": 556,
      "ici": 557,
      "mo": 558,
      "ta": 559,
      "prendre": 560,
      "compa": 561,
      "plais": 562,
      "fable": 563,
      "tin": 564,
      "avant": 565,
      "autres": 566,
      "march": 567,
      "........": 568,
      "aussitôt": 569,
      "animal": 570,
      "nom": 571,
      "air": 572,
      "ante": 573,
      "seau": 574,
      "arri": 575,
      "cha": 576,
      "étant": 577,
      "cours": 578,
      "peine": 579,
      "premi": 580,
      "pauvre": 581,
      "ges": 582,
      "gis": 583,
      "nat": 584,
      "pi": 585,
      "pouv": 586,
      "ton": 587,
      "ist": 588,
      "conn": 589,
      "cas": 590,
      "ceux": 591,
      "men": 592,
      "âne": 593,
      "auc": 594,
      "chant": 595,
      "pare": 596,
      "bou": 597,
      "min": 598,
      "dem": 599,
      "allait": 600,
      "court": 601,
      "gue": 602,
      "pay": 603,
      "après": 604,
      "hab": 605,
      "honn": 606,
      "ière": 607,
      "maux": 608,
      "oie": 609,
      "chien": 610,
      "celle": 611,
      "lut": 612,
      "grâ": 613,
      "let": 614,
      "lez": 615,
      "las": 616,
      "prés": 617,
      "ami": 618,
      "peuple": 619,
      "souvent": 620,
      "compagn": 621,
      "da": 622,
      "sot": 623,
      "ue": 624,
      "ît": 625,
      "onde": 626,
      "quit": 627,
      "prom": 628,
      "trois": 629,
      "sui": 630,
      "monde": 631,
      "long": 632,
      "fils": 633,
      "go": 634,
      "haut": 635,
      "veut": 636,
      "yeux": 637,
      "éc": 638,
      "ail": 639,
      "seign": 640,
      "lant": 641,
      "veux": 642,
      "chan": 643,
      "cham": 644,
      "voit": 645,
      "sus": 646,
      "donne": 647,
      "mains": 648,
      "souris": 649,
      "ad": 650,
      "belle": 651,
      "four": 652,
      "off": 653,
      "use": 654,
      "arr": 655,
      "tri": 656,
      "comp": 657,
      "serv": 658,
      "laisse": 659,
      "im": 660,
      "ore": 661,
      "vin": 662,
      "ette": 663,
      "art": 664,
      "ères": 665,
      "gré": 666,
      "rép": 667,
      "bonne": 668,
      "dame": 669,
      "bas": 670,
      "gl": 671,
      "jou": 672,
      "rend": 673,
      "vien": 674,
      "val": 675,
      "écr": 676,
      "êtes": 677,
      "qua": 678,
      "argent": 679,
      "eff": 680,
      "hé": 681,
      "ié": 682,
      "ile": 683,
      "lou": 684,
      "lit": 685,
      "mor": 686,
      "nes": 687,
      "vain": 688,
      "rez": 689,
      "ché": 690,
      "ours": 691,
      "core": 692,
      "bli": 693,
      "cé": 694,
      "lan": 695,
      "ol": 696,
      "pé": 697,
      "rom": 698,
      "soi": 699,
      "ers": 700,
      "trav": 701,
      "avent": 702,
      "toutes": 703,
      "resse": 704,
      "terre": 705,
      "enfants": 706,
      "fortune": 707,
      "droit": 708,
      "animaux": 709,
      "bois": 710,
      "loin": 711,
      "mau": 712,
      "pér": 713,
      "soup": 714,
      "encore": 715,
      "ret": 716,
      "cependant": 717,
      "person": 718,
      "plain": 719,
      "disait": 720,
      "pieds": 721,
      "plaisir": 722,
      "fou": 723,
      "gle": 724,
      "mour": 725,
      "mont": 726,
      "toi": 727,
      "esse": 728,
      "sire": 729,
      "jusqu": 730,
      "marchand": 731,
      "grâce": 732,
      "bi": 733,
      "cit": 734,
      "vu": 735,
      "quer": 736,
      "ande": 737,
      "trés": 738,
      "autant": 739,
      "iers": 740,
      "corps": 741,
      "maint": 742,
      "beaucoup": 743,
      "fond": 744,
      "prince": 745,
      "singe": 746,
      "gal": 747,
      "mou": 748,
      "vrai": 749,
      "dez": 750,
      "quant": 751,
      "uni": 752,
      "pren": 753,
      "sujet": 754,
      "mots": 755,
      "fu": 756,
      "gard": 757,
      "porte": 758,
      "vant": 759,
      "âme": 760,
      "aign": 761,
      "prét": 762,
      "étaient": 763,
      "cré": 764,
      "gros": 765,
      "plein": 766,
      "voici": 767,
      "berger": 768,
      ";;": 769,
      "bat": 770,
      "cam": 771,
      "oiseau": 772,
      "contr": 773,
      "croy": 774,
      "ouver": 775,
      "perd": 776,
      "logis": 777,
      "force": 778,
      "nature": 779,
      "hér": 780,
      "mille": 781,
      "pres": 782,
      "vé": 783,
      "vais": 784,
      "étr": 785,
      "aise": 786,
      "ill": 787,
      "lat": 788,
      "nez": 789,
      "trom": 790,
      "troup": 791,
      "alors": 792,
      "content": 793,
      "lie": 794,
      "lieux": 795,
      "cru": 796,
      "ables": 797,
      "phil": 798,
      "venir": 799,
      "mettre": 800,
      "heureux": 801,
      "bour": 802,
      "cs": 803,
      "ct": 804,
      "dan": 805,
      "fau": 806,
      "loi": 807,
      "ner": 808,
      "ru": 809,
      "sens": 810,
      "ule": 811,
      "çon": 812,
      "tru": 813,
      "sons": 814,
      "jeune": 815,
      "été": 816,
      "comment": 817,
      "ciel": 818,
      "quelques": 819,
      "exemp": 820,
      "souff": 821,
      "voisin": 822,
      "bes": 823,
      "dor": 824,
      "dès": 825,
      "ga": 826,
      "mat": 827,
      "mout": 828,
      "raient": 829,
      "tôt": 830,
      "ème": 831,
      "êt": 832,
      "ceci": 833,
      "avaient": 834,
      "avez": 835,
      "crois": 836,
      "appro": 837,
      "appe": 838,
      "abord": 839,
      "col": 840,
      "petits": 841,
      "présent": 842,
      "seigneur": 843,
      "aventure": 844,
      "fs": 845,
      "her": 846,
      "lles": 847,
      "put": 848,
      "rou": 849,
      "th": 850,
      "ète": 851,
      "éch": 852,
      "aim": 853,
      "sieurs": 854,
      "passe": 855,
      "crut": 856,
      "ouvr": 857,
      "mage": 858,
      "maison": 859,
      "tient": 860,
      "devant": 861,
      "petit": 862,
      "habit": 863,
      "bles": 864,
      "but": 865,
      "mom": 866,
      "mère": 867,
      "ro": 868,
      "œu": 869,
      "aurait": 870,
      "tez": 871,
      "dessus": 872,
      "conse": 873,
      "...": 874,
      "faisait": 875,
      "donner": 876,
      "somme": 877,
      "honneur": 878,
      "cau": 879,
      "emb": 880,
      "lors": 881,
      "ope": 882,
      "peur": 883,
      "st": 884,
      "tir": 885,
      "vis": 886,
      "vres": 887,
      "vint": 888,
      "viens": 889,
      "épou": 890,
      "endu": 891,
      "retour": 892,
      "trou": 893,
      "cri": 894,
      "diff": 895,
      "déf": 896,
      "serait": 897,
      "aper": 898,
      "ments": 899,
      "chercher": 900,
      "doux": 901,
      "nouveau": 902,
      "bête": 903,
      "dra": 904,
      "jà": 905,
      "nul": 906,
      "pin": 907,
      "sorte": 908,
      "tort": 909,
      "seule": 910,
      "ches": 911,
      "chiens": 912,
      "songe": 913,
      "avis": 914,
      "all": 915,
      "crain": 916,
      "vieux": 917,
      "sert": 918,
      "hommes": 919,
      "agne": 920,
      "trouva": 921,
      "juge": 922,
      "voix": 923,
      "sembla": 924,
      "dent": 925,
      "dam": 926,
      "heur": 927,
      "hist": 928,
      "na": 929,
      "sse": 930,
      "èvre": 931,
      "enne": 932,
      "telle": 933,
      "très": 934,
      "parmi": 935,
      "passer": 936,
      "amis": 937,
      "cro": 938,
      "déjà": 939,
      "publi": 940,
      "mari": 941,
      "bruit": 942,
      "aucun": 943,
      "quatre": 944,
      "trésor": 945,
      "gre": 946,
      "har": 947,
      "mir": 948,
      "mér": 949,
      "aigle": 950,
      "quet": 951,
      "chasse": 952,
      "ass": 953,
      "ends": 954,
      "reste": 955,
      "quelqu": 956,
      "voyant": 957,
      "trouve": 958,
      "porter": 959,
      "grands": 960,
      "prix": 961,
      "chaque": 962,
      "premier": 963,
      "demeure": 964,
      "histoire": 965,
      "adieu": 966,
      "cl": 967,
      "foi": 968,
      "lent": 969,
      "mu": 970,
      "oeu": 971,
      "pens": 972,
      "ris": 973,
      "roit": 974,
      "reprit": 975,
      "ceau": 976,
      "tres": 977,
      "destin": 978,
      "aller": 979,
      "pourquoi": 980,
      "déli": 981,
      "pein": 982,
      "guerre": 983,
      "coeur": 984,
      "soins": 985,
      "dents": 986,
      "fût": 987,
      "ique": 988,
      "morte": 989,
      "pè": 990,
      "pai": 991,
      "pent": 992,
      "pot": 993,
      "deman": 994,
      "entôt": 995,
      "iste": 996,
      "croit": 997,
      "endroit": 998,
      "cieux": 999,
      "cheval": 1000,
      "messieurs": 1001,
      "enfant": 1002,
      "manger": 1003,
      "voyez": 1004,
      "sole": 1005,
      "tels": 1006,
      "pense": 1007,
      "avantage": 1008,
      "bientôt": 1009,
      "cès": 1010,
      "fo": 1011,
      "fille": 1012,
      "hi": 1013,
      "sc": 1014,
      "veu": 1015,
      "èle": 1016,
      "ane": 1017,
      "illa": 1018,
      "isse": 1019,
      "ation": 1020,
      "grande": 1021,
      "chemin": 1022,
      "oyen": 1023,
      "trouver": 1024,
      "humains": 1025,
      "objet": 1026,
      "commun": 1027,
      "semble": 1028,
      "exemple": 1029,
      "moment": 1030,
      "soleil": 1031,
      "cla": 1032,
      "dom": 1033,
      "mét": 1034,
      "meur": 1035,
      "ole": 1036,
      "pat": 1037,
      "tien": 1038,
      "âge": 1039,
      "remp": 1040,
      "reux": 1041,
      "illar": 1042,
      "selon": 1043,
      "pourtant": 1044,
      "die": 1045,
      "gri": 1046,
      "peau": 1047,
      "tantôt": 1048,
      "drait": 1049,
      "nuit": 1050,
      "juste": 1051,
      "tomb": 1052,
      "univers": 1053,
      "cause": 1054,
      "époux": 1055,
      "seulement": 1056,
      "ade": 1057,
      "bl": 1058,
      "doit": 1059,
      "fri": 1060,
      "hy": 1061,
      "rats": 1062,
      "vont": 1063,
      "êts": 1064,
      "ôte": 1065,
      "regard": 1066,
      "quelle": 1067,
      "lus": 1068,
      "sion": 1069,
      "sieur": 1070,
      "aver": 1071,
      "partit": 1072,
      "alla": 1073,
      "duc": 1074,
      "conte": 1075,
      "sera": 1076,
      "cess": 1077,
      "autrefois": 1078,
      "monsieur": 1079,
      "courir": 1080,
      "propre": 1081,
      "tire": 1082,
      "discours": 1083,
      "mainte": 1084,
      "rencontre": 1085,
      "cerf": 1086,
      "manière": 1087,
      "lég": 1088,
      "coups": 1089,
      "voulut": 1090,
      "obli": 1091,
      "elles": 1092,
      "esprits": 1093,
      "garde": 1094,
      "erreur": 1095,
      "............": 1096,
      "besoin": 1097,
      "lois": 1098,
      "nent": 1099,
      "nier": 1100,
      "pal": 1101,
      "ron": 1102,
      "rit": 1103,
      "rois": 1104,
      "sû": 1105,
      "ville": 1106,
      "pru": 1107,
      "partout": 1108,
      "sages": 1109,
      "vol": 1110,
      "gren": 1111,
      "suff": 1112,
      "autour": 1113,
      "coq": 1114,
      "extr": 1115,
      "léph": 1116,
      "sortir": 1117,
      "traits": 1118,
      "fontaine": 1119,
      "connais": 1120,
      "pays": 1121,
      "servir": 1122,
      "répon": 1123,
      "danger": 1124,
      "paix": 1125,
      "bu": 1126,
      "bât": 1127,
      "bord": 1128,
      "dét": 1129,
      "dir": 1130,
      "fav": 1131,
      "flat": 1132,
      "hôt": 1133,
      "jard": 1134,
      "mois": 1135,
      "nage": 1136,
      "pon": 1137,
      "pose": 1138,
      "tâ": 1139,
      "repartit": 1140,
      "onne": 1141,
      "demi": 1142,
      "queu": 1143,
      "sec": 1144,
      "euse": 1145,
      "chau": 1146,
      "ombre": 1147,
      "urent": 1148,
      "sir": 1149,
      "alou": 1150,
      "état": 1151,
      "plutôt": 1152,
      "suc": 1153,
      "biens": 1154,
      "gné": 1155,
      "guère": 1156,
      "malheureux": 1157,
      "tirer": 1158,
      "vieillar": 1159,
      "séjour": 1160,
      "nulle": 1161,
      "atta": 1162,
      "nécess": 1163,
      "ignor": 1164,
      "arrive": 1165,
      "lette": 1166,
      "hélas": 1167,
      "herbe": 1168,
      "extrême": 1169,
      "queue": 1170,
      "),": 1171,
      "davantage": 1172,
      "eaux": 1173,
      "hait": 1174,
      "has": 1175,
      "mil": 1176,
      "rir": 1177,
      "rendre": 1178,
      "sang": 1179,
      "vér": 1180,
      "ède": 1181,
      "ène": 1182,
      "ense": 1183,
      "arbre": 1184,
      "proie": 1185,
      "meun": 1186,
      "geance": 1187,
      "passé": 1188,
      "passant": 1189,
      "divers": 1190,
      "sul": 1191,
      "cier": 1192,
      "beaux": 1193,
      "profit": 1194,
      "malheur": 1195,
      "voyage": 1196,
      "bras": 1197,
      "sommes": 1198,
      "personne": 1199,
      "mouton": 1200,
      "illage": 1201,
      ".\"": 1202,
      "ah": 1203,
      "afin": 1204,
      "bau": 1205,
      "bons": 1206,
      "cur": 1207,
      "cul": 1208,
      "fam": 1209,
      "firent": 1210,
      "gale": 1211,
      "hor": 1212,
      "ja": 1213,
      "nour": 1214,
      "née": 1215,
      "sav": 1216,
      "sance": 1217,
      "tal": 1218,
      "teur": 1219,
      "œur": 1220,
      "ennu": 1221,
      "lets": 1222,
      "aide": 1223,
      "oise": 1224,
      "chait": 1225,
      "quere": 1226,
      "inaire": 1227,
      "meil": 1228,
      "parler": 1229,
      "attr": 1230,
      "ateur": 1231,
      "desc": 1232,
      "crier": 1233,
      "montre": 1234,
      "gner": 1235,
      "plaire": 1236,
      "quelquefois": 1237,
      "frère": 1238,
      "ages": 1239,
      "voulait": 1240,
      "mets": 1241,
      "certaine": 1242,
      "ordinaire": 1243,
      "souhait": 1244,
      "import": 1245,
      "conna": 1246,
      "suiv": 1247,
      "bis": 1248,
      "can": 1249,
      "cure": 1250,
      "gt": 1251,
      "ions": 1252,
      "lè": 1253,
      "mée": 1254,
      "oh": 1255,
      "ode": 1256,
      "sat": 1257,
      "tait": 1258,
      "âte": 1259,
      "œurs": 1260,
      "envie": 1261,
      "aujour": 1262,
      "triste": 1263,
      "simp": 1264,
      "parle": 1265,
      "lièvre": 1266,
      "voleurs": 1267,
      "cris": 1268,
      "endait": 1269,
      "vivre": 1270,
      "sup": 1271,
      "mala": 1272,
      "madame": 1273,
      "cesse": 1274,
      "faite": 1275,
      "monar": 1276,
      "bec": 1277,
      "propos": 1278,
      "emport": 1279,
      "voulez": 1280,
      "loups": 1281,
      "hui": 1282,
      "tours": 1283,
      "faisant": 1284,
      "source": 1285,
      "plaît": 1286,
      "pouvait": 1287,
      "gloire": 1288,
      "effort": 1289,
      "mourir": 1290,
      "étrang": 1291,
      "conseil": 1292,
      "aperç": 1293,
      "ennemi": 1294,
      "mortel": 1295,
      "léphant": 1296,
      "vieillard": 1297,
      "meunier": 1298,
      "aujourd": 1299,
      "ate": 1300,
      "côt": 1301,
      "eh": 1302,
      "hon": 1303,
      "ice": 1304,
      "image": 1305,
      "joie": 1306,
      "mait": 1307,
      "moit": 1308,
      "mite": 1309,
      "moyen": 1310,
      "ras": 1311,
      "ram": 1312,
      "rap": 1313,
      "village": 1314,
      "écou": 1315,
      "ûte": 1316,
      "ange": 1317,
      "jeun": 1318,
      "ains": 1319,
      "viv": 1320,
      "défaut": 1321,
      "suit": 1322,
      "serpent": 1323,
      "iller": 1324,
      "récit": 1325,
      "tion": 1326,
      "mange": 1327,
      "race": 1328,
      "fran": 1329,
      "voul": 1330,
      "moindre": 1331,
      "brebis": 1332,
      "double": 1333,
      "voie": 1334,
      "prise": 1335,
      "traite": 1336,
      "penser": 1337,
      "tombe": 1338,
      "tenir": 1339,
      "première": 1340,
      "goût": 1341,
      "champs": 1342,
      "adresse": 1343,
      "oreilles": 1344,
      "maudit": 1345,
      "héros": 1346,
      "presque": 1347,
      "troupeau": 1348,
      "ouvrage": 1349,
      "différ": 1350,
      "hasard": 1351,
      "querelle": 1352,
      "ach": 1353,
      "cab": 1354,
      "dence": 1355,
      "feu": 1356,
      "fallait": 1357,
      "ise": 1358,
      "lot": 1359,
      "mons": 1360,
      "rés": 1361,
      "tér": 1362,
      "tiens": 1363,
      "ude": 1364,
      "vaux": 1365,
      "vaut": 1366,
      "vage": 1367,
      "xe": 1368,
      "çons": 1369,
      "ép": 1370,
      "repas": 1371,
      "det": 1372,
      "chap": 1373,
      "ingr": 1374,
      "inter": 1375,
      "aisé": 1376,
      "trans": 1377,
      "duit": 1378,
      "pourrait": 1379,
      "irait": 1380,
      "lier": 1381,
      "combat": 1382,
      "acle": 1383,
      "profon": 1384,
      "mble": 1385,
      "voyait": 1386,
      "oyez": 1387,
      "vite": 1388,
      "commune": 1389,
      "merve": 1390,
      "certains": 1391,
      "place": 1392,
      "pied": 1393,
      "occu": 1394,
      "change": 1395,
      "changer": 1396,
      "arrê": 1397,
      "effet": 1398,
      "mauvais": 1399,
      "plainte": 1400,
      ";;;;": 1401,
      "campa": 1402,
      "chasseur": 1403,
      "demande": 1404,
      "folie": 1405,
      ".............": 1406,
      "grenou": 1407,
      "jardin": 1408,
      "bit": 1409,
      "cre": 1410,
      "dons": 1411,
      "far": 1412,
      "fat": 1413,
      "fus": 1414,
      "fasse": 1415,
      "faim": 1416,
      "gas": 1417,
      "hôte": 1418,
      "nô": 1419,
      "oles": 1420,
      "pât": 1421,
      "ront": 1422,
      "sal": 1423,
      "test": 1424,
      "ymp": 1425,
      "âtre": 1426,
      "émon": 1427,
      "îte": 1428,
      "aime": 1429,
      "dedans": 1430,
      "etait": 1431,
      "sez": 1432,
      "sein": 1433,
      "arade": 1434,
      "choi": 1435,
      "chas": 1436,
      "invent": 1437,
      "tran": 1438,
      "dure": 1439,
      "livre": 1440,
      "ament": 1441,
      "sut": 1442,
      "mach": 1443,
      "faites": 1444,
      "oses": 1445,
      "ésope": 1446,
      "rire": 1447,
      "courrou": 1448,
      "temple": 1449,
      "empê": 1450,
      "douce": 1451,
      "cule": 1452,
      "pitié": 1453,
      "donna": 1454,
      "tomber": 1455,
      "nouvelle": 1456,
      "façon": 1457,
      "pareils": 1458,
      "compagnon": 1459,
      "compagnons": 1460,
      "champ": 1461,
      "vingt": 1462,
      "écrit": 1463,
      "mouche": 1464,
      "croyait": 1465,
      "ouvert": 1466,
      "semblable": 1467,
      "oeuf": 1468,
      "palais": 1469,
      "volont": 1470,
      "jadis": 1471,
      "meilleur": 1472,
      "moitié": 1473,
      "bor": 1474,
      "bres": 1475,
      "bats": 1476,
      "cir": 1477,
      "dant": 1478,
      "fous": 1479,
      "ide": 1480,
      "lis": 1481,
      "pt": 1482,
      "pous": 1483,
      "pli": 1484,
      "pire": 1485,
      "rons": 1486,
      "soir": 1487,
      "savoir": 1488,
      "tard": 1489,
      "tint": 1490,
      "yer": 1491,
      "élo": 1492,
      "rem": 1493,
      "demain": 1494,
      "aurais": 1495,
      "autru": 1496,
      "oisi": 1497,
      "sier": 1498,
      "ience": 1499,
      "jean": 1500,
      "allez": 1501,
      "étonn": 1502,
      "conter": 1503,
      "amant": 1504,
      "apprendre": 1505,
      "faits": 1506,
      "ffe": 1507,
      "auté": 1508,
      "auteur": 1509,
      "mine": 1510,
      "accor": 1511,
      "perdu": 1512,
      "moine": 1513,
      "disant": 1514,
      "vieille": 1515,
      "cuis": 1516,
      "intér": 1517,
      "sol": 1518,
      "femmes": 1519,
      "prends": 1520,
      "appét": 1521,
      "appelle": 1522,
      "gén": 1523,
      "pouvoir": 1524,
      "demand": 1525,
      "laissez": 1526,
      "oreille": 1527,
      "créat": 1528,
      "camarade": 1529,
      "voisinage": 1530,
      "moutons": 1531,
      "colère": 1532,
      "sûr": 1533,
      "nécessaire": 1534,
      "baudet": 1535,
      "monarque": 1536,
      "alar": 1537,
      "bé": 1538,
      "cat": 1539,
      "cli": 1540,
      "couv": 1541,
      "dirent": 1542,
      "eil": 1543,
      "fal": 1544,
      "fier": 1545,
      "fure": 1546,
      "fables": 1547,
      "ieux": 1548,
      "mê": 1549,
      "pes": 1550,
      "pois": 1551,
      "pap": 1552,
      "rage": 1553,
      "roy": 1554,
      "ronde": 1555,
      "sée": 1556,
      "tis": 1557,
      "yth": 1558,
      "ysse": 1559,
      "écar": 1560,
      "în": 1561,
      "endez": 1562,
      "aie": 1563,
      "ités": 1564,
      "aurai": 1565,
      "etier": 1566,
      "illon": 1567,
      "lam": 1568,
      "entour": 1569,
      "secours": 1570,
      "chi": 1571,
      "chère": 1572,
      "oris": 1573,
      "nement": 1574,
      "prê": 1575,
      "prie": 1576,
      "tron": 1577,
      "siè": 1578,
      "parut": 1579,
      "parti": 1580,
      "atte": 1581,
      "dus": 1582,
      "consi": 1583,
      "condam": 1584,
      "croire": 1585,
      "sub": 1586,
      "utile": 1587,
      "belette": 1588,
      "gnée": 1589,
      "rie": 1590,
      "accour": 1591,
      "procès": 1592,
      "iez": 1593,
      "rare": 1594,
      "rages": 1595,
      "avecque": 1596,
      "frères": 1597,
      "ulysse": 1598,
      "emporte": 1599,
      "empire": 1600,
      "venez": 1601,
      "agit": 1602,
      "juger": 1603,
      "quoique": 1604,
      "loger": 1605,
      "doute": 1606,
      "laisser": 1607,
      "attend": 1608,
      "devait": 1609,
      "misér": 1610,
      "possé": 1611,
      "charge": 1612,
      "dernier": 1613,
      "mena": 1614,
      "bassa": 1615,
      "jouir": 1616,
      "olymp": 1617,
      "travail": 1618,
      "tromper": 1619,
      "faute": 1620,
      "matin": 1621,
      "œuf": 1622,
      "embarr": 1623,
      "lorsque": 1624,
      "retourne": 1625,
      "publique": 1626,
      "oblige": 1627,
      "ignorant": 1628,
      "savetier": 1629,
      "malade": 1630,
      "machine": 1631,
      "courroux": 1632,
      "autrui": 1633,
      "fallut": 1634,
      "fureur": 1635,
      "are": 1636,
      "agré": 1637,
      "bâ": 1638,
      "bar": 1639,
      "bus": 1640,
      "bauc": 1641,
      "blan": 1642,
      "cis": 1643,
      "coin": 1644,
      "cér": 1645,
      "dau": 1646,
      "doi": 1647,
      "dait": 1648,
      "fe": 1649,
      "fil": 1650,
      "fest": 1651,
      "forte": 1652,
      "hir": 1653,
      "jest": 1654,
      "oph": 1655,
      "pier": 1656,
      "pût": 1657,
      "pleurs": 1658,
      "sor": 1659,
      "sain": 1660,
      "savait": 1661,
      "sout": 1662,
      "sants": 1663,
      "soyez": 1664,
      "taire": 1665,
      "yr": 1666,
      "ouï": 1667,
      "reç": 1668,
      "depuis": 1669,
      "deven": 1670,
      "ermite": 1671,
      "esope": 1672,
      "lapin": 1673,
      "secon": 1674,
      "chants": 1675,
      "choses": 1676,
      "isans": 1677,
      "prêt": 1678,
      "assur": 1679,
      "aveu": 1680,
      "para": 1681,
      "dessein": 1682,
      "alité": 1683,
      "duire": 1684,
      "conc": 1685,
      "cons": 1686,
      "dites": 1687,
      "craign": 1688,
      "dise": 1689,
      "plut": 1690,
      "déch": 1691,
      "gras": 1692,
      "sure": 1693,
      "super": 1694,
      "majest": 1695,
      "appar": 1696,
      "surtout": 1697,
      "accou": 1698,
      "courage": 1699,
      "oirs": 1700,
      "vert": 1701,
      "perte": 1702,
      "tants": 1703,
      "malgré": 1704,
      "plaign": 1705,
      "corbeau": 1706,
      "cherche": 1707,
      "frais": 1708,
      "trouvant": 1709,
      "humeur": 1710,
      "nue": 1711,
      "commen": 1712,
      "forme": 1713,
      "morts": 1714,
      "amours": 1715,
      "voisins": 1716,
      "pauvres": 1717,
      "sauver": 1718,
      "poser": 1719,
      "tenait": 1720,
      "pique": 1721,
      "pige": 1722,
      "compagnie": 1723,
      "ondelle": 1724,
      "longtemps": 1725,
      "gogne": 1726,
      "fourn": 1727,
      "écri": 1728,
      "galant": 1729,
      "contraire": 1730,
      "troupe": 1731,
      "œufs": 1732,
      "semblables": 1733,
      "mérite": 1734,
      "métier": 1735,
      "hôtes": 1736,
      "secret": 1737,
      "nourris": 1738,
      "simple": 1739,
      "mortels": 1740,
      "rapport": 1741,
      "olympe": 1742,
      "baucis": 1743,
      "hirondelle": 1744,
      ".»": 1745,
      "bal": 1746,
      "bri": 1747,
      "blé": 1748,
      "cle": 1749,
      "cin": 1750,
      "cité": 1751,
      "dî": 1752,
      "dil": 1753,
      "dur": 1754,
      "dos": 1755,
      "drais": 1756,
      "fé": 1757,
      "fle": 1758,
      "fre": 1759,
      "filles": 1760,
      "gage": 1761,
      "gret": 1762,
      "igne": 1763,
      "jon": 1764,
      "jeux": 1765,
      "lâ": 1766,
      "net": 1767,
      "pan": 1768,
      "pun": 1769,
      "rob": 1770,
      "tend": 1771,
      "uil": 1772,
      "ures": 1773,
      "ves": 1774,
      "vas": 1775,
      "çonn": 1776,
      "évit": 1777,
      "éloi": 1778,
      "éléphant": 1779,
      "oubli": 1780,
      "reur": 1781,
      "recu": 1782,
      "revient": 1783,
      "représent": 1784,
      "deur": 1785,
      "qué": 1786,
      "quis": 1787,
      "erne": 1788,
      "escar": 1789,
      "espè": 1790,
      "auri": 1791,
      "aura": 1792,
      "entend": 1793,
      "entends": 1794,
      "chats": 1795,
      "tement": 1796,
      "cep": 1797,
      "incon": 1798,
      "inno": 1799,
      "omage": 1800,
      "trat": 1801,
      "train": 1802,
      "avan": 1803,
      "paroles": 1804,
      "ali": 1805,
      "allé": 1806,
      "sac": 1807,
      "conf": 1808,
      "amou": 1809,
      "combien": 1810,
      "compère": 1811,
      "vivant": 1812,
      "déesse": 1813,
      "grain": 1814,
      "suite": 1815,
      "appu": 1816,
      "abat": 1817,
      "ossi": 1818,
      "bel": 1819,
      "belles": 1820,
      "rix": 1821,
      "prof": 1822,
      "provin": 1823,
      "progné": 1824,
      "cornes": 1825,
      "terri": 1826,
      "puisse": 1827,
      "puissant": 1828,
      "front": 1829,
      "fruit": 1830,
      "fromage": 1831,
      "empl": 1832,
      "raisonn": 1833,
      "brou": 1834,
      "bran": 1835,
      "instant": 1836,
      "oyens": 1837,
      "longu": 1838,
      "méde": 1839,
      "voulant": 1840,
      "bref": 1841,
      "dront": 1842,
      "justi": 1843,
      "chatte": 1844,
      "affaires": 1845,
      "poule": 1846,
      "saison": 1847,
      "nombre": 1848,
      "arriva": 1849,
      "aucune": 1850,
      "pareil": 1851,
      "grâces": 1852,
      "quitter": 1853,
      "promet": 1854,
      "tribut": 1855,
      "viendra": 1856,
      "morceau": 1857,
      "vraiment": 1858,
      "prenait": 1859,
      "prenez": 1860,
      "perdrix": 1861,
      "gagner": 1862,
      "agneau": 1863,
      "peintre": 1864,
      "hibou": 1865,
      "bâton": 1866,
      "satis": 1867,
      "arrêter": 1868,
      "campagne": 1869,
      "appétit": 1870,
      "considé": 1871,
      "majesté": 1872,
      "espèce": 1873,
      "bais": 1874,
      "boire": 1875,
      "bêtes": 1876,
      "bœuf": 1877,
      "cus": 1878,
      "cœur": 1879,
      "dèle": 1880,
      "fai": 1881,
      "fête": 1882,
      "gor": 1883,
      "hors": 1884,
      "hale": 1885,
      "joi": 1886,
      "lée": 1887,
      "lang": 1888,
      "més": 1889,
      "maine": 1890,
      "nor": 1891,
      "olo": 1892,
      "pis": 1893,
      "page": 1894,
      "pâtre": 1895,
      "rant": 1896,
      "savez": 1897,
      "tand": 1898,
      "tés": 1899,
      "table": 1900,
      "user": 1901,
      "uve": 1902,
      "van": 1903,
      "vue": 1904,
      "ça": 1905,
      "enc": 1906,
      "enle": 1907,
      "ensemble": 1908,
      "engeance": 1909,
      "leçon": 1910,
      "retraite": 1911,
      "regret": 1912,
      "devient": 1913,
      "quait": 1914,
      "quart": 1915,
      "itable": 1916,
      "auraient": 1917,
      "illus": 1918,
      "ente": 1919,
      "seur": 1920,
      "armes": 1921,
      "chés": 1922,
      "prête": 1923,
      "assi": 1924,
      "troisi": 1925,
      "sien": 1926,
      "sine": 1927,
      "siens": 1928,
      "esti": 1929,
      "ave": 1930,
      "avare": 1931,
      "parents": 1932,
      "ath": 1933,
      "étendu": 1934,
      "consul": 1935,
      "amin": 1936,
      "eurent": 1937,
      "dix": 1938,
      "vice": 1939,
      "désir": 1940,
      "cile": 1941,
      "mag": 1942,
      "seront": 1943,
      "servit": 1944,
      "chef": 1945,
      "chevaux": 1946,
      "osoph": 1947,
      "gneux": 1948,
      "plan": 1949,
      "ards": 1950,
      "cherch": 1951,
      "renom": 1952,
      "exer": 1953,
      "excu": 1954,
      "veau": 1955,
      "assemb": 1956,
      "froi": 1957,
      "nière": 1958,
      "raisons": 1959,
      "venait": 1960,
      "vengeance": 1961,
      "instru": 1962,
      "oyer": 1963,
      "trouvait": 1964,
      "longue": 1965,
      "mépris": 1966,
      "méchants": 1967,
      "humble": 1968,
      "laissa": 1969,
      "soeur": 1970,
      "gnez": 1971,
      "commère": 1972,
      "merci": 1973,
      "mercure": 1974,
      "senti": 1975,
      "charmes": 1976,
      "chargé": 1977,
      "fera": 1978,
      "heureuse": 1979,
      "saurait": 1980,
      "princi": 1981,
      "plat": 1982,
      "gardez": 1983,
      "occas": 1984,
      "tenez": 1985,
      "appli": 1986,
      "airs": 1987,
      "piè": 1988,
      "pareille": 1989,
      "pareilles": 1990,
      "courtisans": 1991,
      "quitte": 1992,
      "impru": 1993,
      "langue": 1994,
      "rome": 1995,
      "travers": 1996,
      "périt": 1997,
      "soupir": 1998,
      "personnes": 1999,
      "galand": 2000,
      "contenter": 2001,
      "cruelle": 2002,
      "philémon": 2003,
      "philosoph": 2004,
      "bourse": 2005,
      "approche": 2006,
      "sty": 2007,
      "allaient": 2008,
      "haran": 2009,
      "mérit": 2010,
      "peines": 2011,
      "veuve": 2012,
      "grandeur": 2013,
      "griffe": 2014,
      "frivo": 2015,
      "alouette": 2016,
      "milan": 2017,
      "vérité": 2018,
      "talent": 2019,
      "oiseaux": 2020,
      "attrap": 2021,
      "côtés": 2022,
      "écouter": 2023,
      "térée": 2024,
      "occup": 2025,
      "nôtre": 2026,
      "créature": 2027,
      "embarras": 2028,
      "langage": 2029,
      "tandis": 2030,
      "troisième": 2031,
      "bab": 2032,
      "couvert": 2033,
      "dout": 2034,
      "fie": 2035,
      "furent": 2036,
      "flam": 2037,
      "gou": 2038,
      "gée": 2039,
      "gout": 2040,
      "jeu": 2041,
      "jalou": 2042,
      "ly": 2043,
      "lons": 2044,
      "lér": 2045,
      "mien": 2046,
      "mment": 2047,
      "muse": 2048,
      "niers": 2049,
      "pê": 2050,
      "poi": 2051,
      "pom": 2052,
      "pleur": 2053,
      "ry": 2054,
      "rus": 2055,
      "saut": 2056,
      "sœur": 2057,
      "tan": 2058,
      "tap": 2059,
      "toit": 2060,
      "tonn": 2061,
      "usage": 2062,
      "vir": 2063,
      "vend": 2064,
      "vins": 2065,
      "vendre": 2066,
      "vents": 2067,
      "vaine": 2068,
      "zé": 2069,
      "ées": 2070,
      "épar": 2071,
      "équi": 2072,
      "envers": 2073,
      "oui": 2074,
      "repos": 2075,
      "aimer": 2076,
      "aider": 2077,
      "quent": 2078,
      "quête": 2079,
      "anc": 2080,
      "ances": 2081,
      "itié": 2082,
      "espér": 2083,
      "unt": 2084,
      "lacs": 2085,
      "arts": 2086,
      "cheur": 2087,
      "chois": 2088,
      "chang": 2089,
      "chèvre": 2090,
      "ceaux": 2091,
      "orage": 2092,
      "orph": 2093,
      "antre": 2094,
      "isan": 2095,
      "indi": 2096,
      "asile": 2097,
      "truit": 2098,
      "tration": 2099,
      "songer": 2100,
      "six": 2101,
      "allant": 2102,
      "éti": 2103,
      "étais": 2104,
      "étend": 2105,
      "lire": 2106,
      "livres": 2107,
      "amen": 2108,
      "ambassa": 2109,
      "amitié": 2110,
      "crite": 2111,
      "crate": 2112,
      "diable": 2113,
      "plupart": 2114,
      "ouvrages": 2115,
      "serre": 2116,
      "aires": 2117,
      "surpris": 2118,
      "andre": 2119,
      "beauté": 2120,
      "gnes": 2121,
      "gnait": 2122,
      "ressort": 2123,
      "rière": 2124,
      "act": 2125,
      "proch": 2126,
      "pec": 2127,
      "guet": 2128,
      "donné": 2129,
      "coût": 2130,
      "moire": 2131,
      "corde": 2132,
      "république": 2133,
      "tions": 2134,
      "enfer": 2135,
      "chers": 2136,
      "puisque": 2137,
      "ray": 2138,
      "emploi": 2139,
      "voyag": 2140,
      "bramin": 2141,
      "voulu": 2142,
      "douleur": 2143,
      "huître": 2144,
      "porté": 2145,
      "portait": 2146,
      "valets": 2147,
      "partir": 2148,
      "faisaient": 2149,
      "témoin": 2150,
      "jusques": 2151,
      "attir": 2152,
      "solit": 2153,
      "forêts": 2154,
      "souci": 2155,
      "devint": 2156,
      "petite": 2157,
      "figu": 2158,
      "ferait": 2159,
      "semblait": 2160,
      "derniers": 2161,
      "importe": 2162,
      "facile": 2163,
      "premiers": 2164,
      "chanter": 2165,
      "bouche": 2166,
      "sots": 2167,
      "écla": 2168,
      "fourmi": 2169,
      "arrête": 2170,
      "compter": 2171,
      "louis": 2172,
      "travaille": 2173,
      "soupçonn": 2174,
      "personnage": 2175,
      "plaisirs": 2176,
      "trésors": 2177,
      "sujets": 2178,
      "fuir": 2179,
      "prétend": 2180,
      "croyez": 2181,
      "souffrir": 2182,
      "matière": 2183,
      "ouvrit": 2184,
      "robe": 2185,
      "défendre": 2186,
      "tortue": 2187,
      "pensée": 2188,
      "délicat": 2189,
      "pèler": 2190,
      "folle": 2191,
      "patte": 2192,
      "légère": 2193,
      "sagesse": 2194,
      "suffit": 2195,
      "coqs": 2196,
      "dira": 2197,
      "hôtesse": 2198,
      "tâche": 2199,
      "attraper": 2200,
      "importun": 2201,
      "connaître": 2202,
      "connaît": 2203,
      "âteau": 2204,
      "efforts": 2205,
      "vouloir": 2206,
      "aisément": 2207,
      "gascon": 2208,
      "salaire": 2209,
      "choix": 2210,
      "intérêt": 2211,
      "sold": 2212,
      "alarme": 2213,
      "siècle": 2214,
      "festin": 2215,
      "écria": 2216,
      "allégu": 2217,
      "amoureux": 2218,
      "haleine": 2219,
      "illustration": 2220,
      "équipage": 2221,
      "16": 2222,
      "ache": 2223,
      "ager": 2224,
      "cen": 2225,
      "coi": 2226,
      "dois": 2227,
      "dres": 2228,
      "fâ": 2229,
      "faux": 2230,
      "fleurs": 2231,
      "gi": 2232,
      "gâ": 2233,
      "gir": 2234,
      "gère": 2235,
      "gence": 2236,
      "gîte": 2237,
      "haine": 2238,
      "jur": 2239,
      "meu": 2240,
      "mur": 2241,
      "mand": 2242,
      "mât": 2243,
      "nant": 2244,
      "nais": 2245,
      "nus": 2246,
      "oeil": 2247,
      "por": 2248,
      "pont": 2249,
      "poir": 2250,
      "ppe": 2251,
      "rée": 2252,
      "scé": 2253,
      "strat": 2254,
      "tar": 2255,
      "tor": 2256,
      "taille": 2257,
      "vul": 2258,
      "yait": 2259,
      "èvres": 2260,
      "ég": 2261,
      "éve": 2262,
      "écu": 2263,
      "égale": 2264,
      "ôle": 2265,
      "endit": 2266,
      "reaux": 2267,
      "rets": 2268,
      "revien": 2269,
      "reviens": 2270,
      "retire": 2271,
      "ailes": 2272,
      "aima": 2273,
      "devoir": 2274,
      "queur": 2275,
      "ancier": 2276,
      "este": 2277,
      "escla": 2278,
      "seaux": 2279,
      "eus": 2280,
      "chéti": 2281,
      "cel": 2282,
      "inqui": 2283,
      "inutile": 2284,
      "prouv": 2285,
      "prier": 2286,
      "tremb": 2287,
      "omèle": 2288,
      "trous": 2289,
      "simon": 2290,
      "siez": 2291,
      "avais": 2292,
      "parla": 2293,
      "parent": 2294,
      "parts": 2295,
      "parlez": 2296,
      "parole": 2297,
      "geois": 2298,
      "alli": 2299,
      "sacri": 2300,
      "étour": 2301,
      "étab": 2302,
      "pourvu": 2303,
      "quicon": 2304,
      "conso": 2305,
      "passa": 2306,
      "passion": 2307,
      "ambit": 2308,
      "voleur": 2309,
      "compl": 2310,
      "vict": 2311,
      "déses": 2312,
      "détru": 2313,
      "dépens": 2314,
      "débats": 2315,
      "grimp": 2316,
      "cigogne": 2317,
      "magis": 2318,
      "seraient": 2319,
      "apol": 2320,
      "abon": 2321,
      "aband": 2322,
      "pute": 2323,
      "puits": 2324,
      "acci": 2325,
      "accu": 2326,
      "projet": 2327,
      "propose": 2328,
      "érir": 2329,
      "pect": 2330,
      "guise": 2331,
      "verse": 2332,
      "verra": 2333,
      "ots": 2334,
      "coch": 2335,
      "plon": 2336,
      "plaise": 2337,
      "enfuit": 2338,
      "cheron": 2339,
      "puisqu": 2340,
      "renvoy": 2341,
      "rencontr": 2342,
      "mars": 2343,
      "marche": 2344,
      "tempér": 2345,
      "manquer": 2346,
      "nid": 2347,
      "venant": 2348,
      "voyons": 2349,
      "agème": 2350,
      "mémoire": 2351,
      "pleure": 2352,
      "maîtres": 2353,
      "humain": 2354,
      "portant": 2355,
      "partie": 2356,
      "fini": 2357,
      "faisons": 2358,
      "témoi": 2359,
      "attendre": 2360,
      "larron": 2361,
      "souver": 2362,
      "donnait": 2363,
      "poulets": 2364,
      "tenant": 2365,
      "traître": 2366,
      "marché": 2367,
      "arriv": 2368,
      "pouvez": 2369,
      "miner": 2370,
      "payer": 2371,
      "habile": 2372,
      "honnête": 2373,
      "présents": 2374,
      "suivre": 2375,
      "seigneurs": 2376,
      "offre": 2377,
      "offrir": 2378,
      "office": 2379,
      "compte": 2380,
      "mouches": 2381,
      "prétends": 2382,
      "bergers": 2383,
      "hérit": 2384,
      "étrange": 2385,
      "illons": 2386,
      "philomèle": 2387,
      "bourgeois": 2388,
      "cteur": 2389,
      "dormait": 2390,
      "hercule": 2391,
      "aimait": 2392,
      "cria": 2393,
      "nager": 2394,
      "grec": 2395,
      "grecs": 2396,
      "miroirs": 2397,
      "assis": 2398,
      "mulet": 2399,
      "remplit": 2400,
      "justement": 2401,
      "tomba": 2402,
      "hymen": 2403,
      "sûre": 2404,
      "enseigne": 2405,
      "souhaits": 2406,
      "lève": 2407,
      "aperçut": 2408,
      "profonde": 2409,
      "merveille": 2410,
      "merveilles": 2411,
      "grenouille": 2412,
      "grenouilles": 2413,
      "volontiers": 2414,
      "remède": 2415,
      "cuisine": 2416,
      "aveugle": 2417,
      "superf": 2418,
      "vertus": 2419,
      "escarb": 2420,
      "province": 2421,
      "justice": 2422,
      "ologue": 2423,
      "vanité": 2424,
      "encens": 2425,
      "occasion": 2426,
      "tapis": 2427,
      "zéph": 2428,
      "scélér": 2429,
      "stratagème": 2430,
      "quiconque": 2431,
      "victoire": 2432,
      "apollon": 2433,
      "\".": 2434,
      "bande": 2435,
      "cous": 2436,
      "cap": 2437,
      "cés": 2438,
      "cins": 2439,
      "clar": 2440,
      "cède": 2441,
      "cœurs": 2442,
      "din": 2443,
      "doc": 2444,
      "eléphant": 2445,
      "fen": 2446,
      "fleur": 2447,
      "fab": 2448,
      "fré": 2449,
      "fins": 2450,
      "flot": 2451,
      "gen": 2452,
      "gour": 2453,
      "gain": 2454,
      "gie": 2455,
      "hos": 2456,
      "id": 2457,
      "iqu": 2458,
      "ient": 2459,
      "ifi": 2460,
      "imag": 2461,
      "joint": 2462,
      "jure": 2463,
      "lun": 2464,
      "lour": 2465,
      "lance": 2466,
      "mut": 2467,
      "mul": 2468,
      "noir": 2469,
      "nette": 2470,
      "pain": 2471,
      "rh": 2472,
      "ran": 2473,
      "rav": 2474,
      "sés": 2475,
      "sœurs": 2476,
      "tte": 2477,
      "tur": 2478,
      "tendre": 2479,
      "yst": 2480,
      "zon": 2481,
      "ânes": 2482,
      "éle": 2483,
      "éco": 2484,
      "envoy": 2485,
      "enseign": 2486,
      "envir": 2487,
      "leçons": 2488,
      "outre": 2489,
      "outr": 2490,
      "reine": 2491,
      "revenir": 2492,
      "deau": 2493,
      "quence": 2494,
      "annon": 2495,
      "erai": 2496,
      "auprès": 2497,
      "aurez": 2498,
      "autels": 2499,
      "ets": 2500,
      "ettes": 2501,
      "illé": 2502,
      "ilité": 2503,
      "entes": 2504,
      "entra": 2505,
      "arice": 2506,
      "chê": 2507,
      "chou": 2508,
      "chée": 2509,
      "château": 2510,
      "issait": 2511,
      "inet": 2512,
      "prême": 2513,
      "urie": 2514,
      "memb": 2515,
      "lumi": 2516,
      "tré": 2517,
      "trand": 2518,
      "avarice": 2519,
      "parque": 2520,
      "parlait": 2521,
      "alier": 2522,
      "due": 2523,
      "say": 2524,
      "salut": 2525,
      "étonne": 2526,
      "cont": 2527,
      "contes": 2528,
      "contin": 2529,
      "libre": 2530,
      "liber": 2531,
      "liers": 2532,
      "amé": 2533,
      "amorph": 2534,
      "dition": 2535,
      "voler": 2536,
      "digne": 2537,
      "divin": 2538,
      "plusieurs": 2539,
      "ouvre": 2540,
      "vière": 2541,
      "désert": 2542,
      "suprême": 2543,
      "servi": 2544,
      "server": 2545,
      "bienfait": 2546,
      "peuvent": 2547,
      "rique": 2548,
      "accomm": 2549,
      "courait": 2550,
      "courant": 2551,
      "proph": 2552,
      "profond": 2553,
      "guill": 2554,
      "perdre": 2555,
      "perfi": 2556,
      "coûte": 2557,
      "réve": 2558,
      "puissance": 2559,
      "bonheur": 2560,
      "carrière": 2561,
      "manque": 2562,
      "manant": 2563,
      "ecou": 2564,
      "emplois": 2565,
      "venger": 2566,
      "agir": 2567,
      "entrer": 2568,
      "médi": 2569,
      "pleine": 2570,
      "voudrais": 2571,
      "loge": 2572,
      "dru": 2573,
      "drôle": 2574,
      "douc": 2575,
      "sortes": 2576,
      "tourne": 2577,
      "laiss": 2578,
      "partage": 2579,
      "voisine": 2580,
      "jette": 2581,
      "affli": 2582,
      "témoins": 2583,
      "attent": 2584,
      "soci": 2585,
      "anges": 2586,
      "toutefois": 2587,
      "renards": 2588,
      "forêt": 2589,
      "sentant": 2590,
      "large": 2591,
      "larmes": 2592,
      "bertrand": 2593,
      "misère": 2594,
      "posses": 2595,
      "ferai": 2596,
      "impossi": 2597,
      "préf": 2598,
      "saurais": 2599,
      "sauvage": 2600,
      "ailleurs": 2601,
      "raton": 2602,
      "printemps": 2603,
      "capri": 2604,
      "seuls": 2605,
      "apporte": 2606,
      "trafi": 2607,
      "face": 2608,
      "moque": 2609,
      "pouvant": 2610,
      "chantait": 2611,
      "honneurs": 2612,
      "lettes": 2613,
      "sotte": 2614,
      "promp": 2615,
      "prompt": 2616,
      "suivi": 2617,
      "écl": 2618,
      "chambre": 2619,
      "donnez": 2620,
      "compli": 2621,
      "servant": 2622,
      "glout": 2623,
      "vienne": 2624,
      "morale": 2625,
      "péril": 2626,
      "plaindre": 2627,
      "prétendait": 2628,
      "grosse": 2629,
      "contrain": 2630,
      "faudra": 2631,
      "faudrait": 2632,
      "exemples": 2633,
      "dormir": 2634,
      "présente": 2635,
      "échap": 2636,
      "ouvrir": 2637,
      "moments": 2638,
      "sommeil": 2639,
      "tircis": 2640,
      "épouse": 2641,
      "troub": 2642,
      "défunt": 2643,
      "craint": 2644,
      "crainte": 2645,
      "craindre": 2646,
      "ennemis": 2647,
      "croquant": 2648,
      "hardi": 2649,
      "oeufs": 2650,
      "potage": 2651,
      "endroits": 2652,
      "science": 2653,
      "tienne": 2654,
      "remplis": 2655,
      "blés": 2656,
      "avertir": 2657,
      "connaissance": 2658,
      "bords": 2659,
      "détour": 2660,
      "favoris": 2661,
      "flatteur": 2662,
      "chauve": 2663,
      "véritable": 2664,
      "montrer": 2665,
      "suivez": 2666,
      "odeur": 2667,
      "honte": 2668,
      "franç": 2669,
      "maudite": 2670,
      "monstre": 2671,
      "ingrats": 2672,
      "fati": 2673,
      "inventé": 2674,
      "éloge": 2675,
      "étonné": 2676,
      "poissons": 2677,
      "royau": 2678,
      "înt": 2679,
      "accourut": 2680,
      "misérable": 2681,
      "possédait": 2682,
      "menace": 2683,
      "barbe": 2684,
      "dauph": 2685,
      "pierre": 2686,
      "second": 2687,
      "déchire": 2688,
      "fournit": 2689,
      "dîné": 2690,
      "dili": 2691,
      "éviter": 2692,
      "innocent": 2693,
      "médecins": 2694,
      "renommée": 2695,
      "froid": 2696,
      "styx": 2697,
      "frivoles": 2698,
      "figure": 2699,
      "soldat": 2700,
      "escarbot": 2701,
      "fenêtre": 2702,
      "lumière": 2703,
      ").": 2704,
      "aï": 2705,
      "agr": 2706,
      "ba": 2707,
      "blon": 2708,
      "batt": 2709,
      "bad": 2710,
      "boeufs": 2711,
      "cy": 2712,
      "cère": 2713,
      "cage": 2714,
      "cense": 2715,
      "den": 2716,
      "daign": 2717,
      "fun": 2718,
      "flan": 2719,
      "gag": 2720,
      "gob": 2721,
      "gents": 2722,
      "gouver": 2723,
      "hou": 2724,
      "hont": 2725,
      "ii": 2726,
      "iles": 2727,
      "lune": 2728,
      "laie": 2729,
      "mai": 2730,
      "mant": 2731,
      "mas": 2732,
      "masse": 2733,
      "meurs": 2734,
      "myst": 2735,
      "nis": 2736,
      "nés": 2737,
      "nasse": 2738,
      "ogue": 2739,
      "ples": 2740,
      "poin": 2741,
      "rac": 2742,
      "rose": 2743,
      "rang": 2744,
      "sances": 2745,
      "tau": 2746,
      "tais": 2747,
      "ture": 2748,
      "tyr": 2749,
      "vê": 2750,
      "vô": 2751,
      "vœ": 2752,
      "velle": 2753,
      "vus": 2754,
      "vrais": 2755,
      "virent": 2756,
      "zèle": 2757,
      "âti": 2758,
      "çait": 2759,
      "çant": 2760,
      "ève": 2761,
      "égal": 2762,
      "égard": 2763,
      "évé": 2764,
      "ûter": 2765,
      "œil": 2766,
      "enir": 2767,
      "envi": 2768,
      "repose": 2769,
      "aignez": 2770,
      "dement": 2771,
      "quin": 2772,
      "qualité": 2773,
      "erie": 2774,
      "aur": 2775,
      "augu": 2776,
      "etant": 2777,
      "lamb": 2778,
      "enter": 2779,
      "entendre": 2780,
      "entendit": 2781,
      "serez": 2782,
      "sexe": 2783,
      "araign": 2784,
      "chèvres": 2785,
      "tex": 2786,
      "teau": 2787,
      "isit": 2788,
      "isson": 2789,
      "inte": 2790,
      "intr": 2791,
      "injuste": 2792,
      "prouver": 2793,
      "omb": 2794,
      "assure": 2795,
      "meille": 2796,
      "lue": 2797,
      "trac": 2798,
      "sonner": 2799,
      "sign": 2800,
      "sible": 2801,
      "avons": 2802,
      "avoc": 2803,
      "parfaite": 2804,
      "parnasse": 2805,
      "dessous": 2806,
      "touff": 2807,
      "toucher": 2808,
      "étu": 2809,
      "condu": 2810,
      "consent": 2811,
      "contra": 2812,
      "amar": 2813,
      "amie": 2814,
      "vole": 2815,
      "crit": 2816,
      "pluie": 2817,
      "vif": 2818,
      "vine": 2819,
      "vive": 2820,
      "viol": 2821,
      "déc": 2822,
      "déci": 2823,
      "dépend": 2824,
      "déput": 2825,
      "décla": 2826,
      "serai": 2827,
      "serais": 2828,
      "apprend": 2829,
      "apologue": 2830,
      "abs": 2831,
      "osant": 2832,
      "osco": 2833,
      "montr": 2834,
      "monseigneur": 2835,
      "ffre": 2836,
      "belettes": 2837,
      "ridi": 2838,
      "rivière": 2839,
      "pure": 2840,
      "mier": 2841,
      "mign": 2842,
      "miel": 2843,
      "accourt": 2844,
      "accompagn": 2845,
      "accus": 2846,
      "mesure": 2847,
      "messire": 2848,
      "proche": 2849,
      "produit": 2850,
      "guer": 2851,
      "vertu": 2852,
      "verrez": 2853,
      "ierry": 2854,
      "perdit": 2855,
      "percer": 2856,
      "permet": 2857,
      "perro": 2858,
      "usette": 2859,
      "cognée": 2860,
      "plant": 2861,
      "cormor": 2862,
      "réduit": 2863,
      "tique": 2864,
      "disent": 2865,
      "disaient": 2866,
      "dispute": 2867,
      "enfu": 2868,
      "cherchait": 2869,
      "hommage": 2870,
      "maints": 2871,
      "rendu": 2872,
      "cerveau": 2873,
      "marcher": 2874,
      "marques": 2875,
      "noble": 2876,
      "expri": 2877,
      "expli": 2878,
      "excel": 2879,
      "velo": 2880,
      "fru": 2881,
      "france": 2882,
      "phè": 2883,
      "phé": 2884,
      "venue": 2885,
      "léger": 2886,
      "bro": 2887,
      "brû": 2888,
      "brin": 2889,
      "coupe": 2890,
      "ménage": 2891,
      "pleins": 2892,
      "moindres": 2893,
      "mettr": 2894,
      "drai": 2895,
      "humaine": 2896,
      "laissé": 2897,
      "laissons": 2898,
      "nuire": 2899,
      "obs": 2900,
      "finance": 2901,
      "sourd": 2902,
      "attendez": 2903,
      "telles": 2904,
      "commence": 2905,
      "ordre": 2906,
      "soula": 2907,
      "nées": 2908,
      "pette": 2909,
      "bergère": 2910,
      "traiter": 2911,
      "drez": 2912,
      "fice": 2913,
      "fidèle": 2914,
      "posé": 2915,
      "ferme": 2916,
      "dernière": 2917,
      "couche": 2918,
      "souvient": 2919,
      "santé": 2920,
      "préci": 2921,
      "princes": 2922,
      "cacher": 2923,
      "caché": 2924,
      "sinon": 2925,
      "sincère": 2926,
      "garant": 2927,
      "nouveaux": 2928,
      "faîte": 2929,
      "compagne": 2930,
      "arriver": 2931,
      "istance": 2932,
      "demeur": 2933,
      "lasse": 2934,
      "quittez": 2935,
      "promit": 2936,
      "promis": 2937,
      "suivit": 2938,
      "longs": 2939,
      "écus": 2940,
      "ailles": 2941,
      "trib": 2942,
      "tribu": 2943,
      "répan": 2944,
      "gland": 2945,
      "rends": 2946,
      "viendrait": 2947,
      "écrite": 2948,
      "morceaux": 2949,
      "chéri": 2950,
      "céles": 2951,
      "rompre": 2952,
      "soigneux": 2953,
      "travaux": 2954,
      "soupire": 2955,
      "plaint": 2956,
      "monts": 2957,
      "monter": 2958,
      "citoyen": 2959,
      "fuy": 2960,
      "crédit": 2961,
      "perdirent": 2962,
      "naturel": 2963,
      "étroit": 2964,
      "tromp": 2965,
      "philis": 2966,
      "bourg": 2967,
      "cture": 2968,
      "thierry": 2969,
      "échapp": 2970,
      "habitants": 2971,
      "blesse": 2972,
      "conseille": 2973,
      "visit": 2974,
      "diffici": 2975,
      "songeait": 2976,
      "allons": 2977,
      "crains": 2978,
      "dames": 2979,
      "public": 2980,
      "miracle": 2981,
      "clos": 2982,
      "pensent": 2983,
      "hiver": 2984,
      "scyth": 2985,
      "dommage": 2986,
      "métamorph": 2987,
      "regards": 2988,
      "ronge": 2989,
      "prudent": 2990,
      "répondit": 2991,
      "dangers": 2992,
      "dirai": 2993,
      "favor": 2994,
      "succès": 2995,
      "nécessité": 2996,
      "culti": 2997,
      "famille": 2998,
      "horosco": 2999,
      "descend": 3000,
      "descendu": 3001,
      "importune": 3002,
      "simples": 3003,
      "étranges": 3004,
      "côté": 3005,
      "villageois": 3006,
      "jeunes": 3007,
      "vivait": 3008,
      "vivaient": 3009,
      "cabinet": 3010,
      "épais": 3011,
      "ingrat": 3012,
      "transport": 3013,
      ";;;;;;;;": 3014,
      "fardeau": 3015,
      "pâtur": 3016,
      "testament": 3017,
      "choisir": 3018,
      "tranqu": 3019,
      "moineau": 3020,
      "mêmes": 3021,
      "poisson": 3022,
      "pape": 3023,
      "rarement": 3024,
      "misérables": 3025,
      "agréable": 3026,
      "cérès": 3027,
      "saint": 3028,
      "saints": 3029,
      "devenu": 3030,
      "assuré": 3031,
      "pigeon": 3032,
      "pigeons": 3033,
      "punir": 3034,
      "robin": 3035,
      "terrible": 3036,
      "gorge": 3037,
      "principal": 3038,
      "imprudence": 3039,
      "soupirs": 3040,
      "harangue": 3041,
      "tonnerre": 3042,
      "pèlerins": 3043,
      "torrent": 3044,
      "vulg": 3045,
      "souverain": 3046,
      "genre": 3047,
      "chêne": 3048,
      "trépas": 3049,
      "liberté": 3050,
      "prophète": 3051,
      "guillot": 3052,
      "perfide": 3053,
      "ecoutez": 3054,
      "flancs": 3055,
      "honteux": 3056,
      "vœux": 3057,
      "intro": 3058,
      "perroquet": 3059,
      "cormoran": 3060,
      "horoscope": 3061,
      ".)": 3062,
      "aj": 3063,
      "aqu": 3064,
      "adou": 3065,
      "aler": 3066,
      "ajou": 3067,
      "ban": 3068,
      "boit": 3069,
      "boeuf": 3070,
      "cant": 3071,
      "cav": 3072,
      "clo": 3073,
      "creux": 3074,
      "ction": 3075,
      "dû": 3076,
      "dards": 3077,
      "epou": 3078,
      "fl": 3079,
      "fant": 3080,
      "feux": 3081,
      "fine": 3082,
      "faille": 3083,
      "fît": 3084,
      "gil": 3085,
      "gille": 3086,
      "gagne": 3087,
      "ho": 3088,
      "hâte": 3089,
      "ies": 3090,
      "imit": 3091,
      "icul": 3092,
      "lin": 3093,
      "lir": 3094,
      "lés": 3095,
      "lèrent": 3096,
      "mû": 3097,
      "maient": 3098,
      "mins": 3099,
      "murs": 3100,
      "mères": 3101,
      "moyens": 3102,
      "musette": 3103,
      "nau": 3104,
      "nait": 3105,
      "nains": 3106,
      "opar": 3107,
      "oli": 3108,
      "pur": 3109,
      "pais": 3110,
      "ppo": 3111,
      "presse": 3112,
      "rôt": 3113,
      "scru": 3114,
      "til": 3115,
      "tas": 3116,
      "tani": 3117,
      "têtes": 3118,
      "thé": 3119,
      "ute": 3120,
      "vau": 3121,
      "vait": 3122,
      "vée": 3123,
      "vail": 3124,
      "vaise": 3125,
      "vautour": 3126,
      "xi": 3127,
      "xvi": 3128,
      "xandre": 3129,
      "zir": 3130,
      "élé": 3131,
      "épon": 3132,
      "énor": 3133,
      "ôme": 3134,
      "ench": 3135,
      "enri": 3136,
      "envelo": 3137,
      "reconn": 3138,
      "refu": 3139,
      "revis": 3140,
      "refus": 3141,
      "aile": 3142,
      "quette": 3143,
      "année": 3144,
      "era": 3145,
      "ert": 3146,
      "essay": 3147,
      "eté": 3148,
      "uns": 3149,
      "latin": 3150,
      "entier": 3151,
      "entendu": 3152,
      "secourir": 3153,
      "oison": 3154,
      "euses": 3155,
      "eures": 3156,
      "eusse": 3157,
      "arc": 3158,
      "arde": 3159,
      "aragne": 3160,
      "arbit": 3161,
      "chir": 3162,
      "chaient": 3163,
      "chair": 3164,
      "cevoir": 3165,
      "celles": 3166,
      "orateur": 3167,
      "nements": 3168,
      "isant": 3169,
      "issant": 3170,
      "isseau": 3171,
      "issier": 3172,
      "iner": 3173,
      "ines": 3174,
      "indu": 3175,
      "inier": 3176,
      "prêts": 3177,
      "ombe": 3178,
      "omph": 3179,
      "astr": 3180,
      "luxe": 3181,
      "trot": 3182,
      "trie": 3183,
      "songes": 3184,
      "sie": 3185,
      "sions": 3186,
      "estion": 3187,
      "avou": 3188,
      "avance": 3189,
      "paru": 3190,
      "partant": 3191,
      "ati": 3192,
      "atique": 3193,
      "attirer": 3194,
      "gereux": 3195,
      "alis": 3196,
      "allu": 3197,
      "alités": 3198,
      "sachant": 3199,
      "états": 3200,
      "pourra": 3201,
      "pourrais": 3202,
      "pourraient": 3203,
      "ira": 3204,
      "irai": 3205,
      "iris": 3206,
      "contemp": 3207,
      "convient": 3208,
      "confi": 3209,
      "conta": 3210,
      "conviens": 3211,
      "conduire": 3212,
      "condition": 3213,
      "passage": 3214,
      "passait": 3215,
      "lique": 3216,
      "lice": 3217,
      "lions": 3218,
      "licou": 3219,
      "lisez": 3220,
      "ample": 3221,
      "amants": 3222,
      "vola": 3223,
      "combats": 3224,
      "crie": 3225,
      "crue": 3226,
      "crète": 3227,
      "craignez": 3228,
      "vigil": 3229,
      "vizir": 3230,
      "dés": 3231,
      "dévo": 3232,
      "dépl": 3233,
      "dépou": 3234,
      "déloger": 3235,
      "gra": 3236,
      "grasse": 3237,
      "surer": 3238,
      "appas": 3239,
      "approuv": 3240,
      "abus": 3241,
      "cessa": 3242,
      "survient": 3243,
      "chement": 3244,
      "chemins": 3245,
      "osse": 3246,
      "osait": 3247,
      "autrement": 3248,
      "gnol": 3249,
      "journée": 3250,
      "rier": 3251,
      "riant": 3252,
      "rivage": 3253,
      "mire": 3254,
      "courut": 3255,
      "propres": 3256,
      "gues": 3257,
      "gueur": 3258,
      "guimp": 3259,
      "guères": 3260,
      "guide": 3261,
      "verger": 3262,
      "parer": 3263,
      "points": 3264,
      "ureuil": 3265,
      "plaide": 3266,
      "corri": 3267,
      "terme": 3268,
      "tile": 3269,
      "tise": 3270,
      "tirez": 3271,
      "enfance": 3272,
      "rendit": 3273,
      "cervelle": 3274,
      "marque": 3275,
      "marais": 3276,
      "caract": 3277,
      "expé": 3278,
      "expér": 3279,
      "exquis": 3280,
      "mang": 3281,
      "tuer": 3282,
      "forts": 3283,
      "assemble": 3284,
      "frac": 3285,
      "frage": 3286,
      "frappe": 3287,
      "outa": 3288,
      "venu": 3289,
      "venge": 3290,
      "venons": 3291,
      "venus": 3292,
      "instruit": 3293,
      "couple": 3294,
      "coupable": 3295,
      "trouvent": 3296,
      "vieilles": 3297,
      "ménager": 3298,
      "jupin": 3299,
      "lore": 3300,
      "nonnains": 3301,
      "mettent": 3302,
      "breu": 3303,
      "maîtresse": 3304,
      "tourment": 3305,
      "vase": 3306,
      "nues": 3307,
      "empr": 3308,
      "financier": 3309,
      "témér": 3310,
      "preuve": 3311,
      "attendait": 3312,
      "soû": 3313,
      "angle": 3314,
      "sentait": 3315,
      "aye": 3316,
      "devien": 3317,
      "devraient": 3318,
      "traité": 3319,
      "charlat": 3320,
      "couché": 3321,
      "tente": 3322,
      "prévu": 3323,
      "sauv": 3324,
      "pendu": 3325,
      "pensa": 3326,
      "cache": 3327,
      "caresse": 3328,
      "caquet": 3329,
      "polit": 3330,
      "poète": 3331,
      "garder": 3332,
      "garçon": 3333,
      "saisit": 3334,
      "tenu": 3335,
      "traîn": 3336,
      "façons": 3337,
      "mogo": 3338,
      "chagr": 3339,
      "connus": 3340,
      "bouillon": 3341,
      "sottise": 3342,
      "quitta": 3343,
      "promen": 3344,
      "goûte": 3345,
      "goûter": 3346,
      "hauts": 3347,
      "écrevis": 3348,
      "aillar": 3349,
      "fourmis": 3350,
      "offense": 3351,
      "triomph": 3352,
      "servait": 3353,
      "immortels": 3354,
      "artisan": 3355,
      "réponde": 3356,
      "joue": 3357,
      "rendent": 3358,
      "rendait": 3359,
      "viennent": 3360,
      "écrits": 3361,
      "loue": 3362,
      "moralité": 3363,
      "vainqueur": 3364,
      "soient": 3365,
      "terreur": 3366,
      "droits": 3367,
      "mauvaise": 3368,
      "plains": 3369,
      "fouet": 3370,
      "foudre": 3371,
      "mourant": 3372,
      "mourut": 3373,
      "monta": 3374,
      "unique": 3375,
      "prenant": 3376,
      "prennent": 3377,
      "grossi": 3378,
      "bataille": 3379,
      "contrée": 3380,
      "croyant": 3381,
      "héron": 3382,
      "vénus": 3383,
      "trompette": 3384,
      "troupeaux": 3385,
      "dangereux": 3386,
      "ruine": 3387,
      "ruisseau": 3388,
      "souffle": 3389,
      "appelé": 3390,
      "appeler": 3391,
      "colombe": 3392,
      "route": 3393,
      "embras": 3394,
      "stat": 3395,
      "difficul": 3396,
      "allât": 3397,
      "allèrent": 3398,
      "croquer": 3399,
      "aucuns": 3400,
      "clair": 3401,
      "destinée": 3402,
      "délices": 3403,
      "hippo": 3404,
      "veulent": 3405,
      "objets": 3406,
      "communs": 3407,
      "tiennent": 3408,
      "hypo": 3409,
      "avertis": 3410,
      "ducats": 3411,
      "obliger": 3412,
      "répond": 3413,
      "faveur": 3414,
      "flatte": 3415,
      "jardins": 3416,
      "chaud": 3417,
      "succom": 3418,
      "nullement": 3419,
      "curé": 3420,
      "fameux": 3421,
      "talents": 3422,
      "ennui": 3423,
      "certainement": 3424,
      "suivante": 3425,
      "canaille": 3426,
      "emporta": 3427,
      "emporter": 3428,
      "aperçoit": 3429,
      "défauts": 3430,
      "différents": 3431,
      "réso": 3432,
      "chapit": 3433,
      "campagnes": 3434,
      "nôtres": 3435,
      "pâture": 3436,
      "empêcher": 3437,
      "volonté": 3438,
      "éloquence": 3439,
      "cuisinier": 3440,
      "intérêts": 3441,
      "génisse": 3442,
      "papier": 3443,
      "atteint": 3444,
      "subs": 3445,
      "subtil": 3446,
      "attendant": 3447,
      "bâti": 3448,
      "sorcier": 3449,
      "ouïr": 3450,
      "seconde": 3451,
      "assurance": 3452,
      "paraître": 3453,
      "conclu": 3454,
      "appartient": 3455,
      "accoutu": 3456,
      "frelons": 3457,
      "lâche": 3458,
      "tendresse": 3459,
      "éloigne": 3460,
      "recue": 3461,
      "auriez": 3462,
      "avancer": 3463,
      "alizon": 3464,
      "employ": 3465,
      "satisfaire": 3466,
      "sentiments": 3467,
      "philosophe": 3468,
      "flamme": 3469,
      "goutte": 3470,
      "jalouse": 3471,
      "lyre": 3472,
      "pêcheur": 3473,
      "poids": 3474,
      "pleurant": 3475,
      "espérance": 3476,
      "choisit": 3477,
      "changé": 3478,
      "ambassade": 3479,
      "prochain": 3480,
      "voyageur": 3481,
      "solitaire": 3482,
      "meute": 3483,
      "mâtins": 3484,
      "aimable": 3485,
      "esclave": 3486,
      "ambition": 3487,
      "désespoir": 3488,
      "accident": 3489,
      "cochon": 3490,
      "plonge": 3491,
      "renvoyer": 3492,
      "tempérament": 3493,
      "sûreté": 3494,
      "enseignement": 3495,
      "superflus": 3496,
      "scélérat": 3497,
      "césar": 3498,
      "hospit": 3499,
      "idole": 3500,
      "contents": 3501,
      "continu": 3502,
      "accommo": 3503,
      "douceurs": 3504,
      "possesseur": 3505,
      "caprice": 3506,
      "promptement": 3507,
      "échappa": 3508,
      "troubler": 3509,
      "françois": 3510,
      "royaume": 3511,
      "dauphin": 3512,
      "innocente": 3513,
      "cygne": 3514,
      "funeste": 3515,
      "maigre": 3516,
      "mystère": 3517,
      "vêtu": 3518,
      "aurore": 3519,
      "augus": 3520,
      "lambris": 3521,
      "araignée": 3522,
      "texte": 3523,
      "ridicule": 3524,
      "fruits": 3525,
      "phèdre": 3526,
      "phébus": 3527,
      "difficile": 3528,
      "scythe": 3529,
      "pâturage": 3530,
      "tranquille": 3531,
      "vulgaire": 3532,
      "naufrage": 3533,
      "opard": 3534,
      "scrupu": 3535,
      "envelop": 3536,
      "reconnut": 3537,
      "indul": 3538,
      "guimpe": 3539,
      "caractère": 3540,
      "mogol": 3541,
      "écrevisse": 3542,
      "difficulté": 3543,
      "hippocrate": 3544,
      ":\"": 3545,
      "[...": 3546,
      "ace": 3547,
      "adroit": 3548,
      "aja": 3549,
      "bû": 3550,
      "bours": 3551,
      "cal": 3552,
      "caut": 3553,
      "cée": 3554,
      "cti": 3555,
      "cats": 3556,
      "cite": 3557,
      "cits": 3558,
      "couver": 3559,
      "cyth": 3560,
      "dè": 3561,
      "dap": 3562,
      "dance": 3563,
      "daim": 3564,
      "ement": 3565,
      "fan": 3566,
      "fis": 3567,
      "fas": 3568,
      "fir": 3569,
      "foire": 3570,
      "faise": 3571,
      "flè": 3572,
      "furie": 3573,
      "gles": 3574,
      "gât": 3575,
      "gile": 3576,
      "hô": 3577,
      "hau": 3578,
      "heurs": 3579,
      "happe": 3580,
      "haï": 3581,
      "hnis": 3582,
      "if": 3583,
      "ieu": 3584,
      "ige": 3585,
      "idi": 3586,
      "ive": 3587,
      "iceau": 3588,
      "join": 3589,
      "jouv": 3590,
      "jap": 3591,
      "len": 3592,
      "lète": 3593,
      "loris": 3594,
      "mouv": 3595,
      "mure": 3596,
      "miens": 3597,
      "maille": 3598,
      "mule": 3599,
      "mène": 3600,
      "mœurs": 3601,
      "mament": 3602,
      "nois": 3603,
      "not": 3604,
      "nag": 3605,
      "noire": 3606,
      "noie": 3607,
      "nages": 3608,
      "ote": 3609,
      "ocr": 3610,
      "pil": 3611,
      "pant": 3612,
      "peux": 3613,
      "pins": 3614,
      "plie": 3615,
      "purent": 3616,
      "rè": 3617,
      "rin": 3618,
      "ravis": 3619,
      "rossi": 3620,
      "rapporte": 3621,
      "sois": 3622,
      "savant": 3623,
      "sante": 3624,
      "saires": 3625,
      "spect": 3626,
      "teurs": 3627,
      "usa": 3628,
      "uses": 3629,
      "vil": 3630,
      "vor": 3631,
      "vôt": 3632,
      "villes": 3633,
      "vaille": 3634,
      "xion": 3635,
      "ze": 3636,
      "âmes": 3637,
      "ânier": 3638,
      "écor": 3639,
      "éga": 3640,
      "êle": 3641,
      "êpe": 3642,
      "ône": 3643,
      "ôtez": 3644,
      "envoie": 3645,
      "leu": 3646,
      "lecteur": 3647,
      "reprend": 3648,
      "recours": 3649,
      "repent": 3650,
      "regarde": 3651,
      "remerci": 3652,
      "rebours": 3653,
      "ondes": 3654,
      "delà": 3655,
      "debout": 3656,
      "deuil": 3657,
      "quérir": 3658,
      "qualités": 3659,
      "andes": 3660,
      "erais": 3661,
      "itaire": 3662,
      "itude": 3663,
      "espa": 3664,
      "ession": 3665,
      "aud": 3666,
      "illant": 3667,
      "lab": 3668,
      "lacet": 3669,
      "lari": 3670,
      "lapins": 3671,
      "entrai": 3672,
      "oix": 3673,
      "oine": 3674,
      "argu": 3675,
      "arbres": 3676,
      "cho": 3677,
      "chit": 3678,
      "chent": 3679,
      "chér": 3680,
      "chim": 3681,
      "châti": 3682,
      "chute": 3683,
      "chloris": 3684,
      "teint": 3685,
      "org": 3686,
      "oracle": 3687,
      "orieux": 3688,
      "ornement": 3689,
      "antique": 3690,
      "antiqu": 3691,
      "ison": 3692,
      "isait": 3693,
      "ister": 3694,
      "istes": 3695,
      "istres": 3696,
      "indis": 3697,
      "incomm": 3698,
      "incl": 3699,
      "insec": 3700,
      "infini": 3701,
      "injustice": 3702,
      "incessa": 3703,
      "prai": 3704,
      "astres": 3705,
      "assurer": 3706,
      "mez": 3707,
      "sique": 3708,
      "siff": 3709,
      "signe": 3710,
      "estique": 3711,
      "parfait": 3712,
      "parfu": 3713,
      "parlent": 3714,
      "jeû": 3715,
      "dest": 3716,
      "alci": 3717,
      "allég": 3718,
      "altér": 3719,
      "touche": 3720,
      "sache": 3721,
      "étang": 3722,
      "pourri": 3723,
      "pourvoir": 3724,
      "pourront": 3725,
      "pourrons": 3726,
      "iront": 3727,
      "irrit": 3728,
      "conté": 3729,
      "contest": 3730,
      "pasteur": 3731,
      "passée": 3732,
      "passants": 3733,
      "lime": 3734,
      "lière": 3735,
      "amène": 3736,
      "dité": 3737,
      "titude": 3738,
      "voeu": 3739,
      "comble": 3740,
      "compense": 3741,
      "croc": 3742,
      "crist": 3743,
      "divins": 3744,
      "endor": 3745,
      "plumage": 3746,
      "vidence": 3747,
      "débr": 3748,
      "dépos": 3749,
      "démo": 3750,
      "désor": 3751,
      "détruit": 3752,
      "grais": 3753,
      "grav": 3754,
      "grat": 3755,
      "grave": 3756,
      "grandes": 3757,
      "magn": 3758,
      "servent": 3759,
      "apper": 3760,
      "appris": 3761,
      "apporter": 3762,
      "menton": 3763,
      "mentir": 3764,
      "menteur": 3765,
      "abe": 3766,
      "cesser": 3767,
      "surplus": 3768,
      "survint": 3769,
      "cheveux": 3770,
      "osité": 3771,
      "peuples": 3772,
      "auts": 3773,
      "autés": 3774,
      "maisons": 3775,
      "beautés": 3776,
      "resser": 3777,
      "restait": 3778,
      "ressource": 3779,
      "respire": 3780,
      "respec": 3781,
      "rieur": 3782,
      "riche": 3783,
      "rive": 3784,
      "riches": 3785,
      "rivaux": 3786,
      "pul": 3787,
      "puce": 3788,
      "quels": 3789,
      "mise": 3790,
      "acquit": 3791,
      "acquis": 3792,
      "acquérir": 3793,
      "course": 3794,
      "messer": 3795,
      "prodi": 3796,
      "providence": 3797,
      "peint": 3798,
      "gué": 3799,
      "guin": 3800,
      "guérir": 3801,
      "guêpe": 3802,
      "paï": 3803,
      "paître": 3804,
      "patri": 3805,
      "paresse": 3806,
      "patrie": 3807,
      "permit": 3808,
      "usé": 3809,
      "coeurs": 3810,
      "coquette": 3811,
      "malherbe": 3812,
      "malaisé": 3813,
      "malheureuse": 3814,
      "malheurs": 3815,
      "plé": 3816,
      "plai": 3817,
      "corne": 3818,
      "rég": 3819,
      "rédu": 3820,
      "régner": 3821,
      "réjouir": 3822,
      "réfle": 3823,
      "réparer": 3824,
      "récits": 3825,
      "récompense": 3826,
      "terminer": 3827,
      "dissi": 3828,
      "discorde": 3829,
      "enfou": 3830,
      "cherchez": 3831,
      "puissances": 3832,
      "maintenant": 3833,
      "renon": 3834,
      "rendez": 3835,
      "renvoie": 3836,
      "rendus": 3837,
      "rencontra": 3838,
      "cerfs": 3839,
      "marbre": 3840,
      "martin": 3841,
      "marrons": 3842,
      "tempête": 3843,
      "carnage": 3844,
      "noces": 3845,
      "excès": 3846,
      "manqua": 3847,
      "manteau": 3848,
      "tume": 3849,
      "frapp": 3850,
      "outé": 3851,
      "léopard": 3852,
      "agile": 3853,
      "trouvé": 3854,
      "trouvèrent": 3855,
      "entree": 3856,
      "entreprise": 3857,
      "mélan": 3858,
      "ménée": 3859,
      "méprise": 3860,
      "mette": 3861,
      "drons": 3862,
      "sév": 3863,
      "sénat": 3864,
      "sortit": 3865,
      "sortent": 3866,
      "tourner": 3867,
      "laissant": 3868,
      "cuv": 3869,
      "porta": 3870,
      "portes": 3871,
      "vache": 3872,
      "nuage": 3873,
      "nuits": 3874,
      "finir": 3875,
      "grandville": 3876,
      "souriceau": 3877,
      "attends": 3878,
      "soeurs": 3879,
      "socrate": 3880,
      "anglais": 3881,
      "formé": 3882,
      "chacune": 3883,
      "prison": 3884,
      "prière": 3885,
      "prieure": 3886,
      "sentit": 3887,
      "sentir": 3888,
      "devons": 3889,
      "fixe": 3890,
      "charger": 3891,
      "fonde": 3892,
      "feront": 3893,
      "ferons": 3894,
      "fermier": 3895,
      "lionne": 3896,
      "coucher": 3897,
      "certaines": 3898,
      "sagement": 3899,
      "jambes": 3900,
      "prendrai": 3901,
      "donnant": 3902,
      "précaut": 3903,
      "prévôt": 3904,
      "sauve": 3905,
      "sauva": 3906,
      "sauvé": 3907,
      "sauraient": 3908,
      "pendit": 3909,
      "penses": 3910,
      "alexandre": 3911,
      "pol": 3912,
      "poé": 3913,
      "placé": 3914,
      "tombeau": 3915,
      "nouvel": 3916,
      "nouvelles": 3917,
      "lieue": 3918,
      "appât": 3919,
      "traî": 3920,
      "faerne": 3921,
      "géné": 3922,
      "gémit": 3923,
      "modé": 3924,
      "moquer": 3925,
      "modèle": 3926,
      "plaisant": 3927,
      "marchait": 3928,
      "..........": 3929,
      "noms": 3930,
      "nomme": 3931,
      "arrière": 3932,
      "chaî": 3933,
      "pauvreté": 3934,
      "nates": 3935,
      "nation": 3936,
      "istait": 3937,
      "mener": 3938,
      "menus": 3939,
      "habits": 3940,
      "lassé": 3941,
      "sottis": 3942,
      "quitté": 3943,
      "suivant": 3944,
      "gosier": 3945,
      "écureuil": 3946,
      "chansons": 3947,
      "voiture": 3948,
      "usez": 3949,
      "arrêts": 3950,
      "trio": 3951,
      "répand": 3952,
      "glorieux": 3953,
      "jouer": 3954,
      "écrire": 3955,
      "quadru": 3956,
      "louange": 3957,
      "célé": 3958,
      "célè": 3959,
      "péné": 3960,
      "pédant": 3961,
      "péchés": 3962,
      "romans": 3963,
      "romains": 3964,
      "rompt": 3965,
      "traver": 3966,
      "aventur": 3967,
      "souper": 3968,
      "montagne": 3969,
      "marchands": 3970,
      "citoyens": 3971,
      "moucheron": 3972,
      "universe": 3973,
      "prétendre": 3974,
      "prétendu": 3975,
      "perdent": 3976,
      "illent": 3977,
      "illir": 3978,
      "trompe": 3979,
      "bourgogne": 3980,
      "danse": 3981,
      "loisir": 3982,
      "dormant": 3983,
      "gagn": 3984,
      "approcher": 3985,
      "approchez": 3986,
      "approcha": 3987,
      "approchant": 3988,
      "thème": 3989,
      "échine": 3990,
      "échappe": 3991,
      "habitait": 3992,
      "habitant": 3993,
      "rocher": 3994,
      "rodil": 3995,
      "œuvre": 3996,
      "visage": 3997,
      "troubl": 3998,
      "criait": 3999,
      "crime": 4000,
      "défend": 4001,
      "jugea": 4002,
      "croque": 4003,
      "croît": 4004,
      "publier": 4005,
      "mariage": 4006,
      "assauts": 4007,
      "close": 4008,
      "museau": 4009,
      "musique": 4010,
      "oeuvre": 4011,
      "délicats": 4012,
      "demandez": 4013,
      "domp": 4014,
      "domaine": 4015,
      "domestique": 4016,
      "meurt": 4017,
      "rempli": 4018,
      "grima": 4019,
      "tombé": 4020,
      "tombèrent": 4021,
      "blâme": 4022,
      "hyménée": 4023,
      "regardants": 4024,
      "duction": 4025,
      "manières": 4026,
      "...............": 4027,
      "besoins": 4028,
      "prudence": 4029,
      "léphants": 4030,
      "connaissez": 4031,
      "réponse": 4032,
      "répondre": 4033,
      "buisson": 4034,
      "pond": 4035,
      "succède": 4036,
      "attacher": 4037,
      "attaché": 4038,
      "ignorance": 4039,
      "milieu": 4040,
      "sultan": 4041,
      "curieux": 4042,
      "culaire": 4043,
      "familles": 4044,
      "galetas": 4045,
      "horreur": 4046,
      "ennuyer": 4047,
      "meilleurs": 4048,
      "canard": 4049,
      "suppli": 4050,
      "monarques": 4051,
      "étrangère": 4052,
      "honor": 4053,
      "jeunesse": 4054,
      "pensers": 4055,
      "premièrement": 4056,
      "différentes": 4057,
      "épan": 4058,
      "chapons": 4059,
      "changea": 4060,
      "effets": 4061,
      "faron": 4062,
      "chassé": 4063,
      "tranche": 4064,
      "doucement": 4065,
      "poussant": 4066,
      "accord": 4067,
      "accorde": 4068,
      "demanda": 4069,
      "demandaient": 4070,
      "créatures": 4071,
      "sûrs": 4072,
      "alarmes": 4073,
      "couvée": 4074,
      "écart": 4075,
      "écarte": 4076,
      "prêter": 4077,
      "condamne": 4078,
      "condamné": 4079,
      "buste": 4080,
      "blancs": 4081,
      "doive": 4082,
      "reçut": 4083,
      "devenus": 4084,
      "paraît": 4085,
      "conclut": 4086,
      "craignant": 4087,
      "apparence": 4088,
      "plaignit": 4089,
      "commencer": 4090,
      "nourrissons": 4091,
      "cinq": 4092,
      "dîner": 4093,
      "férer": 4094,
      "fleure": 4095,
      "lâcher": 4096,
      "vaste": 4097,
      "oublie": 4098,
      "recueil": 4099,
      "ernelle": 4100,
      "aurions": 4101,
      "inconnu": 4102,
      "appuyer": 4103,
      "abattit": 4104,
      "profane": 4105,
      "longues": 4106,
      "longueurs": 4107,
      "satisfait": 4108,
      "considérer": 4109,
      "faible": 4110,
      "normand": 4111,
      "estime": 4112,
      "estimer": 4113,
      "athlète": 4114,
      "consulter": 4115,
      "désirs": 4116,
      "serviteur": 4117,
      "excuser": 4118,
      "instruire": 4119,
      "humblement": 4120,
      "sentiment": 4121,
      "applique": 4122,
      "piège": 4123,
      "pièces": 4124,
      "attrapé": 4125,
      "jaloux": 4126,
      "poison": 4127,
      "pompe": 4128,
      "rustre": 4129,
      "ressorts": 4130,
      "prochaine": 4131,
      "coûtait": 4132,
      "rayons": 4133,
      "voyageurs": 4134,
      "attirail": 4135,
      "solitude": 4136,
      "coiff": 4137,
      "gib": 4138,
      "gâter": 4139,
      "jura": 4140,
      "murmure": 4141,
      "naissance": 4142,
      "portrait": 4143,
      "tarder": 4144,
      "éveille": 4145,
      "chétif": 4146,
      "trembler": 4147,
      "simonette": 4148,
      "établir": 4149,
      "consola": 4150,
      "complète": 4151,
      "abondance": 4152,
      "abandonn": 4153,
      "abandonne": 4154,
      "pleurer": 4155,
      "héritage": 4156,
      "zéphir": 4157,
      "clarté": 4158,
      "fréquent": 4159,
      "joints": 4160,
      "multitude": 4161,
      "rhin": 4162,
      "école": 4163,
      "outrage": 4164,
      "membres": 4165,
      "amérique": 4166,
      "laissât": 4167,
      "société": 4168,
      "impossible": 4169,
      "préfér": 4170,
      "gloutons": 4171,
      "contraint": 4172,
      "diligent": 4173,
      "houlette": 4174,
      "roseau": 4175,
      "taureaux": 4176,
      "tyran": 4177,
      "meilleure": 4178,
      "avocats": 4179,
      "amarante": 4180,
      "absence": 4181,
      "demeura": 4182,
      "céleste": 4183,
      "visiter": 4184,
      "cultiver": 4185,
      "ingratitude": 4186,
      "introdu": 4187,
      "ajouta": 4188,
      "ajouter": 4189,
      "cavalier": 4190,
      "epoux": 4191,
      "tanière": 4192,
      "gracieux": 4193,
      "plaideurs": 4194,
      "corrige": 4195,
      "expérience": 4196,
      "fracas": 4197,
      "vieillesse": 4198,
      "breuvage": 4199,
      "angleterre": 4200,
      "charlatans": 4201,
      "politique": 4202,
      "traînant": 4203,
      "hypocrite": 4204,
      "résolut": 4205,
      "chapitres": 4206,
      "scrupule": 4207,
      "indulgence": 4208,
      "[...]": 4209,
      "ajax": 4210,
      "cythère": 4211,
      "dèles": 4212,
      "daphnis": 4213,
      "fanfaron": 4214,
      "firmament": 4215,
      "haute": 4216,
      "jouvence": 4217,
      "rossignol": 4218,
      "spectacle": 4219,
      "antiquité": 4220,
      "inclin": 4221,
      "insecte": 4222,
      "incessamment": 4223,
      "cristal": 4224,
      "débris": 4225,
      "désormais": 4226,
      "magnifi": 4227,
      "réflexion": 4228,
      "mélanco": 4229,
      "précaution": 4230,
      "sottises": 4231,
      "\")": 4232,
      "\",": 4233,
      ".,": 4234,
      ".<|": 4235,
      "agrand": 4236,
      "ajus": 4237,
      "acier": 4238,
      "ajustement": 4239,
      "bê": 4240,
      "bér": 4241,
      "bul": 4242,
      "blo": 4243,
      "bière": 4244,
      "baise": 4245,
      "bate": 4246,
      "bilité": 4247,
      "casse": 4248,
      "caus": 4249,
      "clé": 4250,
      "cence": 4251,
      "cton": 4252,
      "clou": 4253,
      "ctement": 4254,
      "ctions": 4255,
      "dort": 4256,
      "dère": 4257,
      "dot": 4258,
      "durs": 4259,
      "dogue": 4260,
      "ements": 4261,
      "ereur": 4262,
      "foin": 4263,
      "fra": 4264,
      "flé": 4265,
      "fag": 4266,
      "flar": 4267,
      "fuse": 4268,
      "foyer": 4269,
      "fact": 4270,
      "flore": 4271,
      "gais": 4272,
      "gli": 4273,
      "geur": 4274,
      "gés": 4275,
      "got": 4276,
      "gendre": 4277,
      "glo": 4278,
      "gation": 4279,
      "gaillar": 4280,
      "he": 4281,
      "hâ": 4282,
      "hais": 4283,
      "hés": 4284,
      "horte": 4285,
      "hante": 4286,
      "haye": 4287,
      "iés": 4288,
      "iler": 4289,
      "ible": 4290,
      "iques": 4291,
      "idité": 4292,
      "iosité": 4293,
      "joy": 4294,
      "laine": 4295,
      "loyer": 4296,
      "louvre": 4297,
      "mob": 4298,
      "mats": 4299,
      "mord": 4300,
      "mèrent": 4301,
      "neu": 4302,
      "nay": 4303,
      "noirs": 4304,
      "osa": 4305,
      "orer": 4306,
      "pp": 4307,
      "py": 4308,
      "pâ": 4309,
      "pir": 4310,
      "pons": 4311,
      "pist": 4312,
      "puni": 4313,
      "pyth": 4314,
      "pillon": 4315,
      "rs": 4316,
      "rê": 4317,
      "rous": 4318,
      "ros": 4319,
      "renf": 4320,
      "rout": 4321,
      "rentre": 4322,
      "ruse": 4323,
      "sy": 4324,
      "sai": 4325,
      "soy": 4326,
      "siller": 4327,
      "scep": 4328,
      "tère": 4329,
      "tut": 4330,
      "tons": 4331,
      "tier": 4332,
      "tiers": 4333,
      "uis": 4334,
      "ument": 4335,
      "ube": 4336,
      "vap": 4337,
      "vut": 4338,
      "vons": 4339,
      "vac": 4340,
      "ventre": 4341,
      "vœu": 4342,
      "yl": 4343,
      "ym": 4344,
      "yle": 4345,
      "yre": 4346,
      "yant": 4347,
      "zar": 4348,
      "çà": 4349,
      "çaient": 4350,
      "èce": 4351,
      "ège": 4352,
      "ètes": 4353,
      "ènes": 4354,
      "él": 4355,
      "édit": 4356,
      "évo": 4357,
      "épau": 4358,
      "épo": 4359,
      "épi": 4360,
      "ébran": 4361,
      "émut": 4362,
      "épouvant": 4363,
      "étouff": 4364,
      "épreuve": 4365,
      "îtes": 4366,
      "enga": 4367,
      "engage": 4368,
      "ensuite": 4369,
      "enserre": 4370,
      "engrais": 4371,
      "lever": 4372,
      "levant": 4373,
      "levé": 4374,
      "lecture": 4375,
      "reau": 4376,
      "recon": 4377,
      "remet": 4378,
      "reprendre": 4379,
      "regis": 4380,
      "reuse": 4381,
      "remettre": 4382,
      "retient": 4383,
      "rebut": 4384,
      "revint": 4385,
      "recourir": 4386,
      "reconnaissance": 4387,
      "reproche": 4388,
      "retirez": 4389,
      "relâche": 4390,
      "aimé": 4391,
      "one": 4392,
      "ongles": 4393,
      "degré": 4394,
      "devenir": 4395,
      "devine": 4396,
      "quée": 4397,
      "quarts": 4398,
      "question": 4399,
      "andi": 4400,
      "annette": 4401,
      "ertin": 4402,
      "errant": 4403,
      "iti": 4404,
      "iture": 4405,
      "itoy": 4406,
      "esch": 4407,
      "esqui": 4408,
      "estrop": 4409,
      "espère": 4410,
      "espoir": 4411,
      "aupar": 4412,
      "auquel": 4413,
      "auront": 4414,
      "etats": 4415,
      "ilas": 4416,
      "ilhomme": 4417,
      "unis": 4418,
      "unir": 4419,
      "lace": 4420,
      "labou": 4421,
      "entas": 4422,
      "entrait": 4423,
      "entière": 4424,
      "entendez": 4425,
      "sel": 4426,
      "selle": 4427,
      "semaine": 4428,
      "secrète": 4429,
      "oires": 4430,
      "eule": 4431,
      "ari": 4432,
      "arme": 4433,
      "archer": 4434,
      "armé": 4435,
      "chet": 4436,
      "chom": 4437,
      "chais": 4438,
      "choir": 4439,
      "cheuse": 4440,
      "ourse": 4441,
      "ourbé": 4442,
      "ceint": 4443,
      "ori": 4444,
      "orgue": 4445,
      "neaux": 4446,
      "neige": 4447,
      "ina": 4448,
      "inf": 4449,
      "indes": 4450,
      "inci": 4451,
      "inage": 4452,
      "invit": 4453,
      "infin": 4454,
      "intel": 4455,
      "indre": 4456,
      "insul": 4457,
      "inagr": 4458,
      "inconnus": 4459,
      "prou": 4460,
      "prêtre": 4461,
      "prète": 4462,
      "treille": 4463,
      "treuve": 4464,
      "omne": 4465,
      "ombr": 4466,
      "urant": 4467,
      "assent": 4468,
      "associ": 4469,
      "asiles": 4470,
      "meau": 4471,
      "luit": 4472,
      "tras": 4473,
      "trats": 4474,
      "troie": 4475,
      "tristes": 4476,
      "sonne": 4477,
      "sonna": 4478,
      "sière": 4479,
      "avint": 4480,
      "parce": 4481,
      "paris": 4482,
      "paras": 4483,
      "parais": 4484,
      "parlé": 4485,
      "parlant": 4486,
      "pardonne": 4487,
      "iences": 4488,
      "atom": 4489,
      "ateurs": 4490,
      "attraits": 4491,
      "deste": 4492,
      "allais": 4493,
      "alentour": 4494,
      "altérée": 4495,
      "alogue": 4496,
      "touché": 4497,
      "sable": 4498,
      "sabli": 4499,
      "sacré": 4500,
      "étable": 4501,
      "étion": 4502,
      "pourrai": 4503,
      "poursuivit": 4504,
      "pourvut": 4505,
      "quide": 4506,
      "quise": 4507,
      "conqu": 4508,
      "conver": 4509,
      "consé": 4510,
      "convoit": 4511,
      "const": 4512,
      "concur": 4513,
      "confrère": 4514,
      "confus": 4515,
      "contemple": 4516,
      "confrères": 4517,
      "conjon": 4518,
      "conserver": 4519,
      "passent": 4520,
      "passions": 4521,
      "lia": 4522,
      "liv": 4523,
      "lié": 4524,
      "liez": 4525,
      "ligue": 4526,
      "libér": 4527,
      "liquide": 4528,
      "amas": 4529,
      "amment": 4530,
      "amateur": 4531,
      "amuser": 4532,
      "volé": 4533,
      "volant": 4534,
      "voûte": 4535,
      "europe": 4536,
      "comman": 4537,
      "composer": 4538,
      "crée": 4539,
      "crurent": 4540,
      "crève": 4541,
      "croix": 4542,
      "crétion": 4543,
      "dign": 4544,
      "diver": 4545,
      "diables": 4546,
      "divine": 4547,
      "dialogue": 4548,
      "pluton": 4549,
      "oisillons": 4550,
      "vier": 4551,
      "dée": 4552,
      "dépour": 4553,
      "déser": 4554,
      "dément": 4555,
      "dégu": 4556,
      "défaire": 4557,
      "dévou": 4558,
      "dépit": 4559,
      "désire": 4560,
      "débat": 4561,
      "dépense": 4562,
      "dégoût": 4563,
      "désal": 4564,
      "dérob": 4565,
      "dépourvu": 4566,
      "dédaign": 4567,
      "dévor": 4568,
      "grison": 4569,
      "sue": 4570,
      "cire": 4571,
      "cine": 4572,
      "cicér": 4573,
      "madure": 4574,
      "sers": 4575,
      "seras": 4576,
      "serpe": 4577,
      "serve": 4578,
      "apais": 4579,
      "appoint": 4580,
      "menteurs": 4581,
      "abor": 4582,
      "abois": 4583,
      "absent": 4584,
      "abuse": 4585,
      "utilité": 4586,
      "bienfaits": 4587,
      "cessi": 4588,
      "surcroît": 4589,
      "chemine": 4590,
      "osaient": 4591,
      "mondes": 4592,
      "monceau": 4593,
      "monnoie": 4594,
      "monument": 4595,
      "ffres": 4596,
      "auteurs": 4597,
      "automne": 4598,
      "ressemb": 4599,
      "resta": 4600,
      "ressus": 4601,
      "respond": 4602,
      "ries": 4603,
      "rice": 4604,
      "rives": 4605,
      "quelles": 4606,
      "accourir": 4607,
      "action": 4608,
      "actions": 4609,
      "courte": 4610,
      "produire": 4611,
      "proposer": 4612,
      "sept": 4613,
      "guér": 4614,
      "gueule": 4615,
      "perç": 4616,
      "pervers": 4617,
      "perrin": 4618,
      "ieme": 4619,
      "colle": 4620,
      "coche": 4621,
      "coquet": 4622,
      "coffre": 4623,
      "cohorte": 4624,
      "ôter": 4625,
      "plût": 4626,
      "plaine": 4627,
      "plaider": 4628,
      "corsaires": 4629,
      "cornay": 4630,
      "correspond": 4631,
      "répar": 4632,
      "réus": 4633,
      "réserv": 4634,
      "récla": 4635,
      "réchau": 4636,
      "résonner": 4637,
      "tine": 4638,
      "disper": 4639,
      "dispense": 4640,
      "cherchant": 4641,
      "homère": 4642,
      "puiser": 4643,
      "bonjour": 4644,
      "bonpoint": 4645,
      "bonnes": 4646,
      "marmot": 4647,
      "margot": 4648,
      "temples": 4649,
      "carpillon": 4650,
      "noy": 4651,
      "noyer": 4652,
      "novice": 4653,
      "exper": 4654,
      "expos": 4655,
      "exéc": 4656,
      "excep": 4657,
      "excessi": 4658,
      "manche": 4659,
      "mangé": 4660,
      "manquait": 4661,
      "veaux": 4662,
      "tua": 4663,
      "fortun": 4664,
      "raconte": 4665,
      "raconter": 4666,
      "asseoir": 4667,
      "frapper": 4668,
      "nique": 4669,
      "empa": 4670,
      "empereur": 4671,
      "phère": 4672,
      "inelle": 4673,
      "voyaient": 4674,
      "voyager": 4675,
      "léché": 4676,
      "braire": 4677,
      "briller": 4678,
      "brave": 4679,
      "insol": 4680,
      "fautes": 4681,
      "trouvés": 4682,
      "trouvez": 4683,
      "entretien": 4684,
      "entretenir": 4685,
      "méchant": 4686,
      "ménag": 4687,
      "pleut": 4688,
      "voulais": 4689,
      "voudrait": 4690,
      "vouliez": 4691,
      "laitière": 4692,
      "quoiqu": 4693,
      "mettant": 4694,
      "mettait": 4695,
      "drap": 4696,
      "anime": 4697,
      "huit": 4698,
      "huant": 4699,
      "human": 4700,
      "sépare": 4701,
      "sépul": 4702,
      "vitesse": 4703,
      "tournait": 4704,
      "laissait": 4705,
      "portier": 4706,
      "portion": 4707,
      "partis": 4708,
      "partag": 4709,
      "partisan": 4710,
      "partager": 4711,
      "embonpoint": 4712,
      "jeté": 4713,
      "jeter": 4714,
      "jetez": 4715,
      "obis": 4716,
      "obsc": 4717,
      "obole": 4718,
      "obtenir": 4719,
      "affran": 4720,
      "pitance": 4721,
      "jusque": 4722,
      "sourds": 4723,
      "attendu": 4724,
      "attente": 4725,
      "soucis": 4726,
      "privé": 4727,
      "sentiers": 4728,
      "sentinelle": 4729,
      "devin": 4730,
      "devaient": 4731,
      "négli": 4732,
      "traita": 4733,
      "fière": 4734,
      "fidèles": 4735,
      "poss": 4736,
      "posture": 4737,
      "possible": 4738,
      "charme": 4739,
      "charitable": 4740,
      "fondit": 4741,
      "fonds": 4742,
      "ferais": 4743,
      "feraient": 4744,
      "fermé": 4745,
      "fermer": 4746,
      "semblé": 4747,
      "semblant": 4748,
      "rail": 4749,
      "couleu": 4750,
      "gentilhomme": 4751,
      "impose": 4752,
      "impuis": 4753,
      "impertin": 4754,
      "impitoy": 4755,
      "prendrait": 4756,
      "princesse": 4757,
      "case": 4758,
      "cate": 4759,
      "raisonnement": 4760,
      "poil": 4761,
      "placer": 4762,
      "singu": 4763,
      "garo": 4764,
      "trace": 4765,
      "trajet": 4766,
      "traduction": 4767,
      "faon": 4768,
      "mode": 4769,
      "moqu": 4770,
      "moeurs": 4771,
      "moquait": 4772,
      "modeste": 4773,
      "tinent": 4774,
      "nommé": 4775,
      "arrivé": 4776,
      "chameau": 4777,
      "pouvaient": 4778,
      "tonne": 4779,
      "menue": 4780,
      "mensonge": 4781,
      "mensonges": 4782,
      "chanté": 4783,
      "chantant": 4784,
      "chanteur": 4785,
      "bouc": 4786,
      "boute": 4787,
      "bouge": 4788,
      "bouger": 4789,
      "boutique": 4790,
      "ministres": 4791,
      "demeures": 4792,
      "paya": 4793,
      "payant": 4794,
      "payez": 4795,
      "honnêtes": 4796,
      "présence": 4797,
      "peupler": 4798,
      "compagnes": 4799,
      "quittent": 4800,
      "écurie": 4801,
      "chanson": 4802,
      "chambri": 4803,
      "admire": 4804,
      "fourbe": 4805,
      "offrent": 4806,
      "triple": 4807,
      "comptant": 4808,
      "compté": 4809,
      "comptés": 4810,
      "servante": 4811,
      "impri": 4812,
      "immo": 4813,
      "immen": 4814,
      "imparfaite": 4815,
      "répli": 4816,
      "bass": 4817,
      "jouis": 4818,
      "rendront": 4819,
      "viendront": 4820,
      "viendrez": 4821,
      "valait": 4822,
      "vallée": 4823,
      "effor": 4824,
      "loua": 4825,
      "louer": 4826,
      "louanges": 4827,
      "vains": 4828,
      "céder": 4829,
      "langueur": 4830,
      "pénates": 4831,
      "rompr": 4832,
      "rompit": 4833,
      "aventures": 4834,
      "périr": 4835,
      "soupé": 4836,
      "soupçon": 4837,
      "rette": 4838,
      "personnages": 4839,
      "plaintes": 4840,
      "montant": 4841,
      "toile": 4842,
      "cités": 4843,
      "citrou": 4844,
      "galants": 4845,
      "mouflar": 4846,
      "vraie": 4847,
      "fuite": 4848,
      "fumée": 4849,
      "gardait": 4850,
      "vanté": 4851,
      "préteurs": 4852,
      "créa": 4853,
      "créancier": 4854,
      "grossier": 4855,
      "grosseur": 4856,
      "pleines": 4857,
      "battre": 4858,
      "camp": 4859,
      "croyons": 4860,
      "croyaient": 4861,
      "perdait": 4862,
      "pressé": 4863,
      "pressant": 4864,
      "vécu": 4865,
      "illée": 4866,
      "illèrent": 4867,
      "lateur": 4868,
      "trompé": 4869,
      "contente": 4870,
      "cruel": 4871,
      "cruelles": 4872,
      "danube": 4873,
      "fauconn": 4874,
      "ruses": 4875,
      "rugir": 4876,
      "soufflet": 4877,
      "souffrez": 4878,
      "matois": 4879,
      "croissant": 4880,
      "approchait": 4881,
      "appelait": 4882,
      "roulait": 4883,
      "échau": 4884,
      "aimaient": 4885,
      "passez": 4886,
      "blessé": 4887,
      "conseils": 4888,
      "embr": 4889,
      "embourbé": 4890,
      "tiré": 4891,
      "tirés": 4892,
      "tiraient": 4893,
      "retourner": 4894,
      "diffé": 4895,
      "tortu": 4896,
      "agneaux": 4897,
      "jugement": 4898,
      "naître": 4899,
      "tellement": 4900,
      "hargneux": 4901,
      "chasseurs": 4902,
      "assée": 4903,
      "assist": 4904,
      "assistance": 4905,
      "demeurer": 4906,
      "demeurez": 4907,
      "muler": 4908,
      "délicieux": 4909,
      "délicate": 4910,
      "peindre": 4911,
      "mortelle": 4912,
      "mortelles": 4913,
      "pente": 4914,
      "demander": 4915,
      "scène": 4916,
      "veuille": 4917,
      "issez": 4918,
      "pattes": 4919,
      "patience": 4920,
      "grise": 4921,
      "grippe": 4922,
      "tombant": 4923,
      "frire": 4924,
      "fripons": 4925,
      "regardent": 4926,
      "regardant": 4927,
      "averti": 4928,
      "rencontrer": 4929,
      "obligation": 4930,
      "volaille": 4931,
      "grenier": 4932,
      "greniers": 4933,
      "suffis": 4934,
      "servira": 4935,
      "répondra": 4936,
      "bâtir": 4937,
      "bâtons": 4938,
      "faveurs": 4939,
      "tâchez": 4940,
      "vieillards": 4941,
      "attaquer": 4942,
      "hasarde": 4943,
      "sanglier": 4944,
      "diversité": 4945,
      "cierge": 4946,
      "profite": 4947,
      "profiter": 4948,
      "curée": 4949,
      "curiosité": 4950,
      "horace": 4951,
      "savons": 4952,
      "ennuyeux": 4953,
      "oiseleur": 4954,
      "descends": 4955,
      "souhaiter": 4956,
      "suivait": 4957,
      "canal": 4958,
      "satyre": 4959,
      "support": 4960,
      "maladie": 4961,
      "emportant": 4962,
      "aperçu": 4963,
      "ennemie": 4964,
      "moyennant": 4965,
      "raminagr": 4966,
      "rapide": 4967,
      "mangeait": 4968,
      "franche": 4969,
      "voulaient": 4970,
      "voulurent": 4971,
      "différence": 4972,
      "achè": 4973,
      "achet": 4974,
      "cabale": 4975,
      "cabane": 4976,
      "feuillage": 4977,
      "monstres": 4978,
      "résou": 4979,
      "vautours": 4980,
      "chapon": 4981,
      "chapeau": 4982,
      "ingrate": 4983,
      "interprète": 4984,
      "combattre": 4985,
      "profondément": 4986,
      "occupe": 4987,
      "arrêté": 4988,
      "jardinier": 4989,
      "fatal": 4990,
      "fatale": 4991,
      "fussent": 4992,
      "gaster": 4993,
      "émonie": 4994,
      "aimez": 4995,
      "chasser": 4996,
      "chassant": 4997,
      "invention": 4998,
      "empêché": 4999,
      "écriture": 5000,
      "borée": 5001,
      "circons": 5002,
      "circulaire": 5003,
      "pousser": 5004,
      "perdue": 5005,
      "moineaux": 5006,
      "appétits": 5007,
      "géniture": 5008,
      "cliquer": 5009,
      "climat": 5010,
      "climats": 5011,
      "peste": 5012,
      "trone": 5013,
      "parties": 5014,
      "condamner": 5015,
      "posséde": 5016,
      "embarrasse": 5017,
      "agréer": 5018,
      "blanc": 5019,
      "cérémonie": 5020,
      "daud": 5021,
      "doivent": 5022,
      "doigt": 5023,
      "feme": 5024,
      "feinte": 5025,
      "filandi": 5026,
      "yrs": 5027,
      "reçu": 5028,
      "craignaient": 5029,
      "diseurs": 5030,
      "déchir": 5031,
      "superbe": 5032,
      "plaignait": 5033,
      "fournir": 5034,
      "balai": 5035,
      "dura": 5036,
      "durée": 5037,
      "fretin": 5038,
      "tendres": 5039,
      "vastes": 5040,
      "oublier": 5041,
      "ernel": 5042,
      "incontinent": 5043,
      "aliment": 5044,
      "appui": 5045,
      "appuie": 5046,
      "profan": 5047,
      "profession": 5048,
      "terrier": 5049,
      "employez": 5050,
      "raisonnait": 5051,
      "brouet": 5052,
      "branches": 5053,
      "longueur": 5054,
      "aucunement": 5055,
      "considéré": 5056,
      "baiser": 5057,
      "faiblesse": 5058,
      "gorger": 5059,
      "joign": 5060,
      "joignez": 5061,
      "joignait": 5062,
      "enlevé": 5063,
      "quartier": 5064,
      "athènes": 5065,
      "chercheurs": 5066,
      "exercer": 5067,
      "excuse": 5068,
      "instrument": 5069,
      "appliquer": 5070,
      "imprudent": 5071,
      "style": 5072,
      "frivole": 5073,
      "attrape": 5074,
      "occupaient": 5075,
      "babil": 5076,
      "babillar": 5077,
      "douta": 5078,
      "goujon": 5079,
      "mienne": 5080,
      "pleura": 5081,
      "sauter": 5082,
      "épargne": 5083,
      "ancien": 5084,
      "choisis": 5085,
      "changent": 5086,
      "amener": 5087,
      "ambassadeur": 5088,
      "enferme": 5089,
      "éclata": 5090,
      "soupçonner": 5091,
      "soupçonnant": 5092,
      "pèlerinage": 5093,
      "importuns": 5094,
      "alléguant": 5095,
      "fâcheuse": 5096,
      "gâté": 5097,
      "manda": 5098,
      "mâtin": 5099,
      "porc": 5100,
      "égaux": 5101,
      "également": 5102,
      "esclaves": 5103,
      "inquiète": 5104,
      "simonide": 5105,
      "alliance": 5106,
      "sacrifice": 5107,
      "détruire": 5108,
      "détruisit": 5109,
      "grimpe": 5110,
      "magistrat": 5111,
      "magistrats": 5112,
      "accidents": 5113,
      "accuse": 5114,
      "rencontrant": 5115,
      "témoigner": 5116,
      "témoignait": 5117,
      "traîtresse": 5118,
      "arrivés": 5119,
      "arrivèrent": 5120,
      "zéphyrs": 5121,
      "cousin": 5122,
      "capable": 5123,
      "dindons": 5124,
      "docteur": 5125,
      "flottants": 5126,
      "gourdi": 5127,
      "imagine": 5128,
      "lunettes": 5129,
      "lourdaud": 5130,
      "élever": 5131,
      "envoya": 5132,
      "enseignerai": 5133,
      "environ": 5134,
      "annoncer": 5135,
      "entraî": 5136,
      "chouart": 5137,
      "membre": 5138,
      "salutaire": 5139,
      "divinités": 5140,
      "réveil": 5141,
      "médiocr": 5142,
      "affligée": 5143,
      "attentive": 5144,
      "impossibilité": 5145,
      "préfère": 5146,
      "moquez": 5147,
      "éclair": 5148,
      "compliment": 5149,
      "servantes": 5150,
      "favoriser": 5151,
      "fatigu": 5152,
      "déchirez": 5153,
      "agrée": 5154,
      "battait": 5155,
      "badin": 5156,
      "censeur": 5157,
      "censeurs": 5158,
      "gageure": 5159,
      "masure": 5160,
      "poing": 5161,
      "pointe": 5162,
      "racan": 5163,
      "vôtre": 5164,
      "vôtres": 5165,
      "événement": 5166,
      "événements": 5167,
      "quinze": 5168,
      "signal": 5169,
      "violence": 5170,
      "décide": 5171,
      "députés": 5172,
      "déclara": 5173,
      "mignon": 5174,
      "permettez": 5175,
      "enfuyait": 5176,
      "expliquer": 5177,
      "broche": 5178,
      "soulagé": 5179,
      "tribue": 5180,
      "tribuer": 5181,
      "trompeurs": 5182,
      "échappé": 5183,
      "prudente": 5184,
      "favorable": 5185,
      "descendue": 5186,
      "transports": 5187,
      ";;;;;;;;;;;;": 5188,
      "assurément": 5189,
      "aquatique": 5190,
      "boiteux": 5191,
      "canton": 5192,
      "fantôme": 5193,
      "hoquet": 5194,
      "mûrs": 5195,
      "théâtre": 5196,
      "vaillant": 5197,
      "xiv": 5198,
      "xvième": 5199,
      "éponge": 5200,
      "énorme": 5201,
      "enchante": 5202,
      "arbitre": 5203,
      "avoue": 5204,
      "contempor": 5205,
      "confiance": 5206,
      "vigilance": 5207,
      "dévot": 5208,
      "déplor": 5209,
      "approuva": 5210,
      "mangeurs": 5211,
      "emprun": 5212,
      "téméraire": 5213,
      "chagrin": 5214,
      "grossiers": 5215,
      "subsister": 5216,
      "conclure": 5217,
      "éloignement": 5218,
      "employa": 5219,
      "césars": 5220,
      "auguste": 5221,
      "faiseurs": 5222,
      "flèche": 5223,
      "joindre": 5224,
      "lendemain": 5225,
      "règle": 5226,
      "labeur": 5227,
      "laridon": 5228,
      "argument": 5229,
      "châtiment": 5230,
      "organe": 5231,
      "incommode": 5232,
      "infiniment": 5233,
      "destins": 5234,
      "alcimadure": 5235,
      "endormi": 5236,
      "dépositaire": 5237,
      "démocrite": 5238,
      "gravement": 5239,
      "abeilles": 5240,
      "païen": 5241,
      "paresseux": 5242,
      "frappés": 5243,
      "sévère": 5244,
      "poésie": 5245,
      "quadrupè": 5246,
      "universelle": 5247,
      "gagna": 5248,
      "rodilard": 5249,
      "troublée": 5250,
      "supplice": 5251,
      "fleurette": 5252,
      "gibier": 5253,
      "rhinoc": 5254,
      "inclination": 5255,
      "agrandir": 5256,
      "facteurs": 5257,
      "hésit": 5258,
      "mobile": 5259,
      "pistoles": 5260,
      "rêvant": 5261,
      "sillery": 5262,
      "sceptre": 5263,
      "vapeurs": 5264,
      "époque": 5265,
      "étouffer": 5266,
      "engager": 5267,
      "eschyle": 5268,
      "auparavant": 5269,
      "laboureur": 5270,
      "ceinture": 5271,
      "orgueil": 5272,
      "invita": 5273,
      "intelli": 5274,
      "ombrage": 5275,
      "déguis": 5276,
      "réchauffe": 5277,
      "exécut": 5278,
      "ménagère": 5279,
      "sépulture": 5280,
      "couleuvre": 5281,
      "impitoyable": 5282,
      "raminagrobis": 5283,
      "circonspec": 5284,
      "médiocrité": 5285,
      "!\"": 5286,
      ",<|": 5287,
      "00": 5288,
      "11": 5289,
      "19": 5290,
      "47": 5291,
      "91": 5292,
      "?)": 5293,
      "ao": 5294,
      "aî": 5295,
      "agn": 5296,
      "atrop": 5297,
      "achat": 5298,
      "atri": 5299,
      "atelle": 5300,
      "bo": 5301,
      "bla": 5302,
      "bous": 5303,
      "bac": 5304,
      "basse": 5305,
      "bag": 5306,
      "boy": 5307,
      "blait": 5308,
      "baine": 5309,
      "boc": 5310,
      "bore": 5311,
      "bbat": 5312,
      "ball": 5313,
      "balla": 5314,
      "bestion": 5315,
      "baye": 5316,
      "cot": 5317,
      "cout": 5318,
      "cendre": 5319,
      "cents": 5320,
      "cret": 5321,
      "côte": 5322,
      "clus": 5323,
      "caver": 5324,
      "cave": 5325,
      "couvrit": 5326,
      "couvrir": 5327,
      "classe": 5328,
      "dain": 5329,
      "dants": 5330,
      "doyen": 5331,
      "ed": 5332,
      "ele": 5333,
      "ere": 5334,
      "eco": 5335,
      "eléphants": 5336,
      "fur": 5337,
      "fos": 5338,
      "faus": 5339,
      "fuit": 5340,
      "fauc": 5341,
      "fêtes": 5342,
      "fol": 5343,
      "fiers": 5344,
      "fray": 5345,
      "fîtes": 5346,
      "gf": 5347,
      "gs": 5348,
      "gai": 5349,
      "gon": 5350,
      "gend": 5351,
      "gab": 5352,
      "gres": 5353,
      "gine": 5354,
      "gts": 5355,
      "gèrent": 5356,
      "gages": 5357,
      "gâte": 5358,
      "gange": 5359,
      "gaie": 5360,
      "gâteau": 5361,
      "han": 5362,
      "hent": 5363,
      "hant": 5364,
      "hin": 5365,
      "hem": 5366,
      "hode": 5367,
      "heures": 5368,
      "ides": 5369,
      "imb": 5370,
      "iade": 5371,
      "ippe": 5372,
      "idée": 5373,
      "jo": 5374,
      "jan": 5375,
      "jun": 5376,
      "jas": 5377,
      "joli": 5378,
      "lor": 5379,
      "lien": 5380,
      "louv": 5381,
      "los": 5382,
      "laient": 5383,
      "loint": 5384,
      "lants": 5385,
      "lents": 5386,
      "lence": 5387,
      "laille": 5388,
      "lante": 5389,
      "llent": 5390,
      "mâ": 5391,
      "mun": 5392,
      "mans": 5393,
      "mens": 5394,
      "meut": 5395,
      "mants": 5396,
      "mité": 5397,
      "mirent": 5398,
      "nè": 5399,
      "nit": 5400,
      "nar": 5401,
      "nav": 5402,
      "neux": 5403,
      "nie": 5404,
      "neurs": 5405,
      "noise": 5406,
      "odieux": 5407,
      "ogne": 5408,
      "oserai": 5409,
      "pav": 5410,
      "pét": 5411,
      "paux": 5412,
      "poup": 5413,
      "pés": 5414,
      "pôt": 5415,
      "pendre": 5416,
      "pents": 5417,
      "purs": 5418,
      "pair": 5419,
      "piller": 5420,
      "ption": 5421,
      "rne": 5422,
      "rot": 5423,
      "rure": 5424,
      "rhu": 5425,
      "rité": 5426,
      "rite": 5427,
      "rue": 5428,
      "rappe": 5429,
      "rappelle": 5430,
      "sil": 5431,
      "saient": 5432,
      "spé": 5433,
      "sautant": 5434,
      "savaient": 5435,
      "sillons": 5436,
      "tét": 5437,
      "teux": 5438,
      "tab": 5439,
      "tille": 5440,
      "thom": 5441,
      "tance": 5442,
      "tèrent": 5443,
      "tette": 5444,
      "tends": 5445,
      "uge": 5446,
      "uaire": 5447,
      "uves": 5448,
      "veur": 5449,
      "vés": 5450,
      "vance": 5451,
      "vêt": 5452,
      "vass": 5453,
      "vînt": 5454,
      "ys": 5455,
      "ylle": 5456,
      "yph": 5457,
      "ysiens": 5458,
      "za": 5459,
      "zelle": 5460,
      "zot": 5461,
      "zaine": 5462,
      "çus": 5463,
      "èques": 5464,
      "ènent": 5465,
      "ègues": 5466,
      "éte": 5467,
      "ément": 5468,
      "éche": 5469,
      "épu": 5470,
      "échar": 5471,
      "émou": 5472,
      "édie": 5473,
      "élég": 5474,
      "ébau": 5475,
      "évite": 5476,
      "égalant": 5477,
      "évan": 5478,
      "élève": 5479,
      "édoc": 5480,
      "éprouver": 5481,
      "éléphants": 5482,
      "ërne": 5483,
      "île": 5484,
      "îme": 5485,
      "îtra": 5486,
      "ôtre": 5487,
      "ôner": 5488,
      "ende": 5489,
      "enge": 5490,
      "encom": 5491,
      "enses": 5492,
      "envoi": 5493,
      "envis": 5494,
      "envoyant": 5495,
      "enrage": 5496,
      "enquête": 5497,
      "enlève": 5498,
      "envoler": 5499,
      "ensible": 5500,
      "envole": 5501,
      "enclos": 5502,
      "enchaî": 5503,
      "engourdi": 5504,
      "ouit": 5505,
      "ouch": 5506,
      "oudr": 5507,
      "rech": 5508,
      "rece": 5509,
      "rein": 5510,
      "reli": 5511,
      "repro": 5512,
      "rebr": 5513,
      "remé": 5514,
      "redou": 5515,
      "repart": 5516,
      "repris": 5517,
      "retent": 5518,
      "remit": 5519,
      "rebelle": 5520,
      "reim": 5521,
      "remont": 5522,
      "relie": 5523,
      "regre": 5524,
      "retrouve": 5525,
      "retirer": 5526,
      "retran": 5527,
      "rechef": 5528,
      "regardez": 5529,
      "retenez": 5530,
      "requête": 5531,
      "recevoir": 5532,
      "reines": 5533,
      "remarque": 5534,
      "revenons": 5535,
      "ailé": 5536,
      "ongle": 5537,
      "degr": 5538,
      "demoi": 5539,
      "dets": 5540,
      "devers": 5541,
      "deçà": 5542,
      "derechef": 5543,
      "quais": 5544,
      "quois": 5545,
      "quât": 5546,
      "quante": 5547,
      "angu": 5548,
      "anger": 5549,
      "andise": 5550,
      "années": 5551,
      "erres": 5552,
      "eraient": 5553,
      "ith": 5554,
      "ital": 5555,
      "itaine": 5556,
      "ition": 5557,
      "itrite": 5558,
      "essu": 5559,
      "esca": 5560,
      "escl": 5561,
      "essor": 5562,
      "essai": 5563,
      "audit": 5564,
      "aube": 5565,
      "auras": 5566,
      "aubaine": 5567,
      "etat": 5568,
      "etière": 5569,
      "ilé": 5570,
      "illu": 5571,
      "ilier": 5572,
      "unal": 5573,
      "unie": 5574,
      "lage": 5575,
      "lares": 5576,
      "lable": 5577,
      "laquais": 5578,
      "entr": 5579,
      "entré": 5580,
      "ention": 5581,
      "entrent": 5582,
      "enterre": 5583,
      "entiers": 5584,
      "entrée": 5585,
      "semon": 5586,
      "sements": 5587,
      "seuil": 5588,
      "arin": 5589,
      "arti": 5590,
      "armer": 5591,
      "arca": 5592,
      "arist": 5593,
      "armée": 5594,
      "ardeur": 5595,
      "chal": 5596,
      "choire": 5597,
      "chèrent": 5598,
      "chante": 5599,
      "chesse": 5600,
      "chass": 5601,
      "chron": 5602,
      "quement": 5603,
      "ourdie": 5604,
      "orais": 5605,
      "orie": 5606,
      "orcé": 5607,
      "orner": 5608,
      "orages": 5609,
      "ornements": 5610,
      "lesse": 5611,
      "neau": 5612,
      "neveu": 5613,
      "isent": 5614,
      "isme": 5615,
      "ing": 5616,
      "inde": 5617,
      "inti": 5618,
      "inion": 5619,
      "infer": 5620,
      "incelle": 5621,
      "incroy": 5622,
      "invis": 5623,
      "inévit": 5624,
      "inhumain": 5625,
      "injure": 5626,
      "insigne": 5627,
      "inférer": 5628,
      "infortun": 5629,
      "prît": 5630,
      "prati": 5631,
      "pratique": 5632,
      "ousse": 5633,
      "trer": 5634,
      "omie": 5635,
      "ombres": 5636,
      "urfé": 5637,
      "astre": 5638,
      "assouv": 5639,
      "assant": 5640,
      "assais": 5641,
      "astron": 5642,
      "meme": 5643,
      "aisser": 5644,
      "aisée": 5645,
      "lux": 5646,
      "luence": 5647,
      "lutin": 5648,
      "luisant": 5649,
      "tront": 5650,
      "troc": 5651,
      "troyens": 5652,
      "trente": 5653,
      "trône": 5654,
      "sonnette": 5655,
      "estable": 5656,
      "avort": 5657,
      "avenir": 5658,
      "avoine": 5659,
      "avidité": 5660,
      "parleur": 5661,
      "parois": 5662,
      "parfois": 5663,
      "pardonn": 5664,
      "parques": 5665,
      "pardonner": 5666,
      "parfaits": 5667,
      "parcourant": 5668,
      "pardonnez": 5669,
      "aton": 5670,
      "ature": 5671,
      "ations": 5672,
      "aternelle": 5673,
      "geai": 5674,
      "desserre": 5675,
      "alter": 5676,
      "alanges": 5677,
      "touchait": 5678,
      "touchés": 5679,
      "dut": 5680,
      "sale": 5681,
      "salu": 5682,
      "sacre": 5683,
      "salue": 5684,
      "sabbat": 5685,
      "éton": 5686,
      "étal": 5687,
      "étés": 5688,
      "étage": 5689,
      "étoff": 5690,
      "étude": 5691,
      "éternelle": 5692,
      "étincelle": 5693,
      "pourceau": 5694,
      "poursuit": 5695,
      "quie": 5696,
      "quidam": 5697,
      "irrité": 5698,
      "conde": 5699,
      "convi": 5700,
      "consu": 5701,
      "confin": 5702,
      "conserv": 5703,
      "contient": 5704,
      "contait": 5705,
      "consol": 5706,
      "convenait": 5707,
      "conquête": 5708,
      "confonde": 5709,
      "passep": 5710,
      "passages": 5711,
      "passés": 5712,
      "aines": 5713,
      "lign": 5714,
      "lignée": 5715,
      "licité": 5716,
      "lièvres": 5717,
      "amph": 5718,
      "titans": 5719,
      "volu": 5720,
      "voeux": 5721,
      "vogue": 5722,
      "oines": 5723,
      "compas": 5724,
      "comprendre": 5725,
      "compassion": 5726,
      "composé": 5727,
      "comparaître": 5728,
      "comédie": 5729,
      "croup": 5730,
      "crié": 5731,
      "diant": 5732,
      "diez": 5733,
      "difi": 5734,
      "digé": 5735,
      "diad": 5736,
      "diamant": 5737,
      "diverse": 5738,
      "diction": 5739,
      "endort": 5740,
      "endosse": 5741,
      "plum": 5742,
      "plume": 5743,
      "leurre": 5744,
      "leurrer": 5745,
      "mpe": 5746,
      "ouvrier": 5747,
      "vile": 5748,
      "vide": 5749,
      "vices": 5750,
      "vigne": 5751,
      "vivent": 5752,
      "viande": 5753,
      "viole": 5754,
      "vigné": 5755,
      "vivier": 5756,
      "déce": 5757,
      "détr": 5758,
      "décon": 5759,
      "démon": 5760,
      "délo": 5761,
      "défi": 5762,
      "dégar": 5763,
      "début": 5764,
      "décès": 5765,
      "dédie": 5766,
      "déplaire": 5767,
      "déjeun": 5768,
      "démons": 5769,
      "débit": 5770,
      "déduire": 5771,
      "déplut": 5772,
      "députe": 5773,
      "déplaise": 5774,
      "déloge": 5775,
      "dépeint": 5776,
      "décharger": 5777,
      "grot": 5778,
      "grille": 5779,
      "grains": 5780,
      "grillon": 5781,
      "grèce": 5782,
      "gruge": 5783,
      "suait": 5784,
      "suade": 5785,
      "cie": 5786,
      "cice": 5787,
      "ciers": 5788,
      "cieuse": 5789,
      "cigale": 5790,
      "matel": 5791,
      "mages": 5792,
      "magas": 5793,
      "maxi": 5794,
      "matrone": 5795,
      "mademoi": 5796,
      "serment": 5797,
      "serres": 5798,
      "serie": 5799,
      "sergent": 5800,
      "serments": 5801,
      "serrant": 5802,
      "service": 5803,
      "sergents": 5804,
      "serpents": 5805,
      "airer": 5806,
      "apa": 5807,
      "apot": 5808,
      "appl": 5809,
      "appare": 5810,
      "apaise": 5811,
      "apprends": 5812,
      "apprenez": 5813,
      "apprête": 5814,
      "apportait": 5815,
      "apôtre": 5816,
      "mentant": 5817,
      "abatt": 5818,
      "abbaye": 5819,
      "abîme": 5820,
      "abaisser": 5821,
      "bienve": 5822,
      "cession": 5823,
      "surprise": 5824,
      "chefs": 5825,
      "chevance": 5826,
      "ost": 5827,
      "osé": 5828,
      "osée": 5829,
      "danser": 5830,
      "monte": 5831,
      "montrait": 5832,
      "montra": 5833,
      "peupla": 5834,
      "ffé": 5835,
      "ffes": 5836,
      "authent": 5837,
      "gnation": 5838,
      "resp": 5839,
      "restes": 5840,
      "ressé": 5841,
      "respect": 5842,
      "ric": 5843,
      "rime": 5844,
      "rions": 5845,
      "rimes": 5846,
      "rigu": 5847,
      "rimer": 5848,
      "rival": 5849,
      "riers": 5850,
      "pusse": 5851,
      "pudeur": 5852,
      "acé": 5853,
      "actes": 5854,
      "accomp": 5855,
      "accrut": 5856,
      "accab": 5857,
      "accep": 5858,
      "acquitter": 5859,
      "accompl": 5860,
      "courb": 5861,
      "couru": 5862,
      "courag": 5863,
      "couronn": 5864,
      "courté": 5865,
      "couronne": 5866,
      "coursier": 5867,
      "courrier": 5868,
      "ensée": 5869,
      "mesurant": 5870,
      "prose": 5871,
      "prote": 5872,
      "prover": 5873,
      "provient": 5874,
      "proté": 5875,
      "provis": 5876,
      "procure": 5877,
      "protest": 5878,
      "proportion": 5879,
      "éron": 5880,
      "éros": 5881,
      "pelé": 5882,
      "peigne": 5883,
      "donzelle": 5884,
      "verte": 5885,
      "verdi": 5886,
      "verser": 5887,
      "vermis": 5888,
      "pax": 5889,
      "pale": 5890,
      "paon": 5891,
      "paons": 5892,
      "pages": 5893,
      "paquet": 5894,
      "ottit": 5895,
      "othon": 5896,
      "perle": 5897,
      "perde": 5898,
      "perce": 5899,
      "perni": 5900,
      "permis": 5901,
      "perds": 5902,
      "perdez": 5903,
      "perrette": 5904,
      "persuade": 5905,
      "usent": 5906,
      "uscrit": 5907,
      "oits": 5908,
      "cocu": 5909,
      "coffres": 5910,
      "germains": 5911,
      "moires": 5912,
      "toussant": 5913,
      "malice": 5914,
      "ôtent": 5915,
      "ôtons": 5916,
      "plis": 5917,
      "plomb": 5918,
      "ploits": 5919,
      "ardent": 5920,
      "récu": 5921,
      "régent": 5922,
      "réseau": 5923,
      "récomp": 5924,
      "régl": 5925,
      "réjou": 5926,
      "régal": 5927,
      "révé": 5928,
      "réga": 5929,
      "rémois": 5930,
      "résul": 5931,
      "régi": 5932,
      "réseaux": 5933,
      "tera": 5934,
      "terr": 5935,
      "terres": 5936,
      "termes": 5937,
      "terie": 5938,
      "tif": 5939,
      "disci": 5940,
      "dissant": 5941,
      "distin": 5942,
      "disgrâce": 5943,
      "disput": 5944,
      "disparut": 5945,
      "discrétion": 5946,
      "distribue": 5947,
      "enfle": 5948,
      "enfon": 5949,
      "enfers": 5950,
      "enflam": 5951,
      "enfiler": 5952,
      "cherait": 5953,
      "puisé": 5954,
      "puisée": 5955,
      "puissent": 5956,
      "puissants": 5957,
      "puissions": 5958,
      "puissante": 5959,
      "rende": 5960,
      "certes": 5961,
      "bonnet": 5962,
      "maris": 5963,
      "marier": 5964,
      "marie": 5965,
      "marins": 5966,
      "marion": 5967,
      "marquet": 5968,
      "maroli": 5969,
      "carte": 5970,
      "carpe": 5971,
      "carreaux": 5972,
      "carros": 5973,
      "noeu": 5974,
      "note": 5975,
      "noblesse": 5976,
      "exac": 5977,
      "exag": 5978,
      "exprès": 5979,
      "excelle": 5980,
      "excit": 5981,
      "exposer": 5982,
      "excus": 5983,
      "exploits": 5984,
      "manch": 5985,
      "mante": 5986,
      "manoir": 5987,
      "mangent": 5988,
      "manché": 5989,
      "manif": 5990,
      "manuscrit": 5991,
      ".....": 5992,
      "......": 5993,
      "vel": 5994,
      "velet": 5995,
      "tures": 5996,
      "mbre": 5997,
      "mbole": 5998,
      "rajeun": 5999,
      "raconta": 6000,
      "radot": 6001,
      "frai": 6002,
      "frêle": 6003,
      "fraternelle": 6004,
      "outèrent": 6005,
      "êtres": 6006,
      "nig": 6007,
      "nius": 6008,
      "nières": 6009,
      "vrer": 6010,
      "empres": 6011,
      "emplit": 6012,
      "emplette": 6013,
      "empoison": 6014,
      "empédoc": 6015,
      "phant": 6016,
      "phème": 6017,
      "phry": 6018,
      "phalanges": 6019,
      "raisins": 6020,
      "vendit": 6021,
      "veneurs": 6022,
      "voyais": 6023,
      "voyance": 6024,
      "voyages": 6025,
      "bru": 6026,
      "brune": 6027,
      "brouté": 6028,
      "inspire": 6029,
      "insensible": 6030,
      "agasse": 6031,
      "agents": 6032,
      "agore": 6033,
      "agresse": 6034,
      "agissait": 6035,
      "coupa": 6036,
      "coupé": 6037,
      "coupée": 6038,
      "trouvée": 6039,
      "trouvât": 6040,
      "entreprend": 6041,
      "entreprendre": 6042,
      "entretient": 6043,
      "méné": 6044,
      "méfi": 6045,
      "mégère": 6046,
      "mécompte": 6047,
      "voudra": 6048,
      "voudront": 6049,
      "moines": 6050,
      "juin": 6051,
      "jupon": 6052,
      "loay": 6053,
      "logé": 6054,
      "nonobs": 6055,
      "mettra": 6056,
      "mettez": 6057,
      "brer": 6058,
      "dron": 6059,
      "anima": 6060,
      "anières": 6061,
      "doulou": 6062,
      "doublon": 6063,
      "humi": 6064,
      "sées": 6065,
      "sévérité": 6066,
      "sévigné": 6067,
      "sortant": 6068,
      "tournant": 6069,
      "laissent": 6070,
      "cuit": 6071,
      "portée": 6072,
      "valeur": 6073,
      "valez": 6074,
      "vaquer": 6075,
      "nuages": 6076,
      "oppos": 6077,
      "oppose": 6078,
      "opposer": 6079,
      "opinion": 6080,
      "emmanché": 6081,
      "voire": 6082,
      "jetait": 6083,
      "jetant": 6084,
      "jettent": 6085,
      "obtient": 6086,
      "obtint": 6087,
      "observer": 6088,
      "affi": 6089,
      "affam": 6090,
      "affec": 6091,
      "affamé": 6092,
      "finit": 6093,
      "finis": 6094,
      "piteux": 6095,
      "pitaux": 6096,
      "directement": 6097,
      "sourc": 6098,
      "sourit": 6099,
      "sourire": 6100,
      "souriqu": 6101,
      "soph": 6102,
      "nosseigneurs": 6103,
      "command": 6104,
      "commens": 6105,
      "rente": 6106,
      "rentrent": 6107,
      "forcer": 6108,
      "former": 6109,
      "prises": 6110,
      "prisons": 6111,
      "ordres": 6112,
      "souliers": 6113,
      "soudain": 6114,
      "souterr": 6115,
      "pria": 6116,
      "priant": 6117,
      "prime": 6118,
      "sentence": 6119,
      "ayez": 6120,
      "devais": 6121,
      "devez": 6122,
      "larrons": 6123,
      "bert": 6124,
      "irez": 6125,
      "misphère": 6126,
      "traités": 6127,
      "traitez": 6128,
      "elysiens": 6129,
      "fices": 6130,
      "fières": 6131,
      "filets": 6132,
      "poste": 6133,
      "charité": 6134,
      "charton": 6135,
      "charnier": 6136,
      "charmant": 6137,
      "chartier": 6138,
      "charmants": 6139,
      "fondu": 6140,
      "fondre": 6141,
      "fonder": 6142,
      "fondement": 6143,
      "feras": 6144,
      "fermes": 6145,
      "ferions": 6146,
      "ignit": 6147,
      "semblez": 6148,
      "semblent": 6149,
      "raille": 6150,
      "lionceau": 6151,
      "couleur": 6152,
      "courez": 6153,
      "coutume": 6154,
      "gentilles": 6155,
      "impie": 6156,
      "impati": 6157,
      "implor": 6158,
      "souven": 6159,
      "souvînt": 6160,
      "souvenir": 6161,
      "prendra": 6162,
      "prendrais": 6163,
      "prendraient": 6164,
      "donnent": 6165,
      "tenta": 6166,
      "tenté": 6167,
      "tenter": 6168,
      "prési": 6169,
      "prédire": 6170,
      "prépare": 6171,
      "prélat": 6172,
      "précep": 6173,
      "préférer": 6174,
      "prévoyance": 6175,
      "poules": 6176,
      "poulaille": 6177,
      "sauf": 6178,
      "saule": 6179,
      "saurai": 6180,
      "pendus": 6181,
      "ration": 6182,
      "alecton": 6183,
      "cad": 6184,
      "cace": 6185,
      "caresser": 6186,
      "caressé": 6187,
      "posa": 6188,
      "poly": 6189,
      "poêle": 6190,
      "plats": 6191,
      "pères": 6192,
      "gardes": 6193,
      "sommet": 6194,
      "sombres": 6195,
      "erreurs": 6196,
      "tendit": 6197,
      "tenaient": 6198,
      "trame": 6199,
      "tradu": 6200,
      "traces": 6201,
      "fade": 6202,
      "façonn": 6203,
      "fatras": 6204,
      "faërne": 6205,
      "géant": 6206,
      "gémis": 6207,
      "gésine": 6208,
      "molles": 6209,
      "moqué": 6210,
      "tare": 6211,
      "nommée": 6212,
      "nommés": 6213,
      "arrivant": 6214,
      "chaleur": 6215,
      "premières": 6216,
      "pauvret": 6217,
      "pauvrette": 6218,
      "gisant": 6219,
      "nations": 6220,
      "pic": 6221,
      "pides": 6222,
      "pions": 6223,
      "piquait": 6224,
      "pouvais": 6225,
      "pouvons": 6226,
      "istère": 6227,
      "cases": 6228,
      "castor": 6229,
      "menu": 6230,
      "menait": 6231,
      "menez": 6232,
      "miné": 6233,
      "minaud": 6234,
      "ministère": 6235,
      "paye": 6236,
      "payable": 6237,
      "habille": 6238,
      "habité": 6239,
      "habite": 6240,
      "honnêt": 6241,
      "ières": 6242,
      "chienne": 6243,
      "lasses": 6244,
      "lassent": 6245,
      "lassant": 6246,
      "promirent": 6247,
      "suivie": 6248,
      "suivis": 6249,
      "hautes": 6250,
      "écaille": 6251,
      "aillis": 6252,
      "chanvre": 6253,
      "chanoine": 6254,
      "chanoines": 6255,
      "chamfort": 6256,
      "suspect": 6257,
      "suspendit": 6258,
      "ador": 6259,
      "adin": 6260,
      "admi": 6261,
      "admis": 6262,
      "adresser": 6263,
      "fourrer": 6264,
      "offr": 6265,
      "offrit": 6266,
      "offran": 6267,
      "arrêt": 6268,
      "compt": 6269,
      "comptez": 6270,
      "comptait": 6271,
      "servez": 6272,
      "immortel": 6273,
      "imparfait": 6274,
      "immobile": 6275,
      "vinrent": 6276,
      "réplique": 6277,
      "glisse": 6278,
      "rendrait": 6279,
      "rendras": 6280,
      "viendrons": 6281,
      "valent": 6282,
      "valoir": 6283,
      "écras": 6284,
      "effrai": 6285,
      "effroi": 6286,
      "effray": 6287,
      "héose": 6288,
      "hémisphère": 6289,
      "loué": 6290,
      "louant": 6291,
      "litière": 6292,
      "morfondu": 6293,
      "vaines": 6294,
      "vaincu": 6295,
      "vaincre": 6296,
      "chérie": 6297,
      "cédant": 6298,
      "landes": 6299,
      "langu": 6300,
      "olis": 6301,
      "péri": 6302,
      "pécore": 6303,
      "roman": 6304,
      "rompu": 6305,
      "romps": 6306,
      "maucroix": 6307,
      "maudissant": 6308,
      "péré": 6309,
      "péris": 6310,
      "périsse": 6311,
      "soupirait": 6312,
      "souplesse": 6313,
      "retés": 6314,
      "retint": 6315,
      "retarde": 6316,
      "retira": 6317,
      "plaines": 6318,
      "foule": 6319,
      "fouir": 6320,
      "fouille": 6321,
      "fouquet": 6322,
      "mourra": 6323,
      "mourras": 6324,
      "bise": 6325,
      "bigar": 6326,
      "bizar": 6327,
      "citadin": 6328,
      "maintiens": 6329,
      "fondait": 6330,
      "fondir": 6331,
      "galande": 6332,
      "moulin": 6333,
      "vraisemblable": 6334,
      "prenne": 6335,
      "fui": 6336,
      "fumaroli": 6337,
      "gardent": 6338,
      "vantait": 6339,
      "bergerie": 6340,
      "battu": 6341,
      "campe": 6342,
      "contrat": 6343,
      "ouverte": 6344,
      "ouverts": 6345,
      "naturelle": 6346,
      "hérisson": 6347,
      "vaisseaux": 6348,
      "étrètes": 6349,
      "étranger": 6350,
      "illance": 6351,
      "trompeur": 6352,
      "troupes": 6353,
      "contenta": 6354,
      "contentait": 6355,
      "lievre": 6356,
      "cruauté": 6357,
      "philippe": 6358,
      "bourga": 6359,
      "faucon": 6360,
      "faucons": 6361,
      "rude": 6362,
      "rugis": 6363,
      "ruisse": 6364,
      "ruines": 6365,
      "sensés": 6366,
      "souffre": 6367,
      "souffleur": 6368,
      "souffrait": 6369,
      "souffert": 6370,
      "besogne": 6371,
      "doré": 6372,
      "dorés": 6373,
      "dormeur": 6374,
      "dormaient": 6375,
      "dormez": 6376,
      "dorilas": 6377,
      "gare": 6378,
      "gagnée": 6379,
      "approfondir": 6380,
      "appelez": 6381,
      "collier": 6382,
      "colosse": 6383,
      "colbert": 6384,
      "présenté": 6385,
      "seigneurie": 6386,
      "roue": 6387,
      "thym": 6388,
      "écho": 6389,
      "aimant": 6390,
      "passereau": 6391,
      "habiter": 6392,
      "habitaient": 6393,
      "habitude": 6394,
      "roche": 6395,
      "roger": 6396,
      "rogne": 6397,
      "rochers": 6398,
      "conseiller": 6399,
      "...)": 6400,
      "...),": 6401,
      "donnera": 6402,
      "causer": 6403,
      "caucase": 6404,
      "embouch": 6405,
      "stante": 6406,
      "tirait": 6407,
      "tirant": 6408,
      "tirée": 6409,
      "enduit": 6410,
      "retournant": 6411,
      "trouble": 6412,
      "défier": 6413,
      "défendait": 6414,
      "apercevoir": 6415,
      "songez": 6416,
      "craintif": 6417,
      "jugez": 6418,
      "jugements": 6419,
      "damon": 6420,
      "damment": 6421,
      "damoise": 6422,
      "naï": 6423,
      "croqu": 6424,
      "croassant": 6425,
      "publiée": 6426,
      "grelot": 6427,
      "hardie": 6428,
      "harnois": 6429,
      "miraut": 6430,
      "miroir": 6431,
      "cloris": 6432,
      "clothon": 6433,
      "mute": 6434,
      "muets": 6435,
      "pensées": 6436,
      "risquer": 6437,
      "destiné": 6438,
      "délivrer": 6439,
      "pots": 6440,
      "potence": 6441,
      "demandes": 6442,
      "hideux": 6443,
      "scul": 6444,
      "sciences": 6445,
      "veuves": 6446,
      "issement": 6447,
      "clameur": 6448,
      "clameurs": 6449,
      "méthode": 6450,
      "patois": 6451,
      "patissier": 6452,
      "paternel": 6453,
      "tiendra": 6454,
      "tiendrait": 6455,
      "tiendrai": 6456,
      "rempl": 6457,
      "griffes": 6458,
      "tombait": 6459,
      "tombés": 6460,
      "blâ": 6461,
      "blottit": 6462,
      "friand": 6463,
      "friande": 6464,
      "fripon": 6465,
      "hydre": 6466,
      "regardait": 6467,
      "regardaient": 6468,
      "lustre": 6469,
      "avertit": 6470,
      "ducaton": 6471,
      "proprement": 6472,
      "rencontres": 6473,
      "légères": 6474,
      "légiti": 6475,
      "légende": 6476,
      "obligé": 6477,
      "..............": 6478,
      "riture": 6479,
      "suffire": 6480,
      "suffrage": 6481,
      "suffrages": 6482,
      "connaissances": 6483,
      "paysan": 6484,
      "buveu": 6485,
      "bucheron": 6486,
      "bâtie": 6487,
      "déter": 6488,
      "détale": 6489,
      "détail": 6490,
      "détestable": 6491,
      "flatteurs": 6492,
      "moisson": 6493,
      "moissons": 6494,
      "pondre": 6495,
      "pondait": 6496,
      "tâcha": 6497,
      "chaude": 6498,
      "chaudron": 6499,
      "alouettes": 6500,
      "succession": 6501,
      "attache": 6502,
      "milans": 6503,
      "profita": 6504,
      "brasses": 6505,
      "baudets": 6506,
      "famine": 6507,
      "familier": 6508,
      "horri": 6509,
      "horloger": 6510,
      "nourrie": 6511,
      "nourriture": 6512,
      "savants": 6513,
      "talis": 6514,
      "ennuy": 6515,
      "ennuie": 6516,
      "querelles": 6517,
      "descendre": 6518,
      "descendez": 6519,
      "crierait": 6520,
      "montrez": 6521,
      "souhaite": 6522,
      "souhaité": 6523,
      "importance": 6524,
      "canards": 6525,
      "satan": 6526,
      "satire": 6527,
      "supput": 6528,
      "suppose": 6529,
      "supplie": 6530,
      "malades": 6531,
      "cessez": 6532,
      "proposé": 6533,
      "emportent": 6534,
      "étranglé": 6535,
      "aperçois": 6536,
      "honorer": 6537,
      "maitre": 6538,
      "moitiés": 6539,
      "ramen": 6540,
      "ramage": 6541,
      "ramène": 6542,
      "rampant": 6543,
      "écoute": 6544,
      "écoutez": 6545,
      "écoutants": 6546,
      "mangeons": 6547,
      "mangeants": 6548,
      "franc": 6549,
      "franchement": 6550,
      "voulons": 6551,
      "doublement": 6552,
      "différent": 6553,
      "différend": 6554,
      "hasards": 6555,
      "achille": 6556,
      "achéron": 6557,
      "lots": 6558,
      "résis": 6559,
      "résistance": 6560,
      "épand": 6561,
      "épée": 6562,
      "interval": 6563,
      "intercède": 6564,
      "interrompre": 6565,
      "transporter": 6566,
      "profondes": 6567,
      "profondeur": 6568,
      "occuper": 6569,
      "changeant": 6570,
      "changement": 6571,
      "changeons": 6572,
      "jardinage": 6573,
      "crev": 6574,
      "farce": 6575,
      "fussiez": 6576,
      "salle": 6577,
      "testateur": 6578,
      "émondait": 6579,
      "inventeur": 6580,
      "livrer": 6581,
      "empêchés": 6582,
      "champêtre": 6583,
      "ouverture": 6584,
      "volontés": 6585,
      "border": 6586,
      "bornées": 6587,
      "ciron": 6588,
      "pousse": 6589,
      "poussa": 6590,
      "poussière": 6591,
      "pline": 6592,
      "remment": 6593,
      "oisie": 6594,
      "étonna": 6595,
      "étonnés": 6596,
      "étonnaient": 6597,
      "accorder": 6598,
      "solenne": 6599,
      "génér": 6600,
      "génie": 6601,
      "demandent": 6602,
      "demandait": 6603,
      "nécessaires": 6604,
      "clio": 6605,
      "couvent": 6606,
      "couvrait": 6607,
      "mêlé": 6608,
      "mêler": 6609,
      "pesant": 6610,
      "pesante": 6611,
      "royal": 6612,
      "royauté": 6613,
      "tissu": 6614,
      "écarter": 6615,
      "chic": 6616,
      "chiches": 6617,
      "prêcher": 6618,
      "tronc": 6619,
      "siège": 6620,
      "particu": 6621,
      "attein": 6622,
      "atteinte": 6623,
      "considère": 6624,
      "accourant": 6625,
      "rareté": 6626,
      "agitée": 6627,
      "posséder": 6628,
      "menaça": 6629,
      "travaillons": 6630,
      "tromperont": 6631,
      "tromperie": 6632,
      "obligez": 6633,
      "agréables": 6634,
      "bâille": 6635,
      "blanche": 6636,
      "doigts": 6637,
      "feint": 6638,
      "ferez": 6639,
      "festins": 6640,
      "ophon": 6641,
      "pierres": 6642,
      "pierrot": 6643,
      "soutien": 6644,
      "soutiens": 6645,
      "soutînt": 6646,
      "soutenir": 6647,
      "reçois": 6648,
      "conclus": 6649,
      "consiste": 6650,
      "consistait": 6651,
      "craignit": 6652,
      "craignait": 6653,
      "accouche": 6654,
      "plaignant": 6655,
      "plaignirent": 6656,
      "commencé": 6657,
      "commençons": 6658,
      "commença": 6659,
      "commençait": 6660,
      "écrivain": 6661,
      "nourrissait": 6662,
      "rapportons": 6663,
      "balance": 6664,
      "brise": 6665,
      "brifaut": 6666,
      "cinquante": 6667,
      "féconde": 6668,
      "félicité": 6669,
      "fleuve": 6670,
      "frein": 6671,
      "gageons": 6672,
      "joncs": 6673,
      "nettes": 6674,
      "panse": 6675,
      "panier": 6676,
      "panneau": 6677,
      "punie": 6678,
      "robes": 6679,
      "éloign": 6680,
      "représenta": 6681,
      "représente": 6682,
      "représenter": 6683,
      "représentant": 6684,
      "escarcelle": 6685,
      "inconstante": 6686,
      "innocents": 6687,
      "confuse": 6688,
      "confesse": 6689,
      "amoureuse": 6690,
      "abattu": 6691,
      "provinces": 6692,
      "terriers": 6693,
      "employer": 6694,
      "raisonné": 6695,
      "raisonneur": 6696,
      "broute": 6697,
      "broutant": 6698,
      "brouter": 6699,
      "branche": 6700,
      "médecin": 6701,
      "médecine": 6702,
      "justifie": 6703,
      "chattemite": 6704,
      "nombreux": 6705,
      "promets": 6706,
      "promettent": 6707,
      "baisers": 6708,
      "ologie": 6709,
      "tableaux": 6710,
      "enlever": 6711,
      "enlevée": 6712,
      "athène": 6713,
      "étendue": 6714,
      "consulte": 6715,
      "magot": 6716,
      "planche": 6717,
      "plancher": 6718,
      "planches": 6719,
      "cherchons": 6720,
      "exercice": 6721,
      "excusa": 6722,
      "assemblent": 6723,
      "assemblée": 6724,
      "assemblés": 6725,
      "instruis": 6726,
      "principaux": 6727,
      "principale": 6728,
      "occasions": 6729,
      "appliquait": 6730,
      "galands": 6731,
      "philosophie": 6732,
      "harangu": 6733,
      "mériter": 6734,
      "mérites": 6735,
      "méritait": 6736,
      "méritaient": 6737,
      "méritez": 6738,
      "occupant": 6739,
      "occupés": 6740,
      "occupée": 6741,
      "embarrasser": 6742,
      "embarrassé": 6743,
      "douteux": 6744,
      "flammarion": 6745,
      "gouffre": 6746,
      "goutteux": 6747,
      "pêcher": 6748,
      "pomone": 6749,
      "rustique": 6750,
      "sauta": 6751,
      "tanches": 6752,
      "toits": 6753,
      "tonnerres": 6754,
      "virgile": 6755,
      "vendôme": 6756,
      "vainement": 6757,
      "épargn": 6758,
      "aimerais": 6759,
      "espérait": 6760,
      "orphel": 6761,
      "indigné": 6762,
      "indignes": 6763,
      "indignation": 6764,
      "amende": 6765,
      "amenez": 6766,
      "guettait": 6767,
      "coûtent": 6768,
      "attira": 6769,
      "éclats": 6770,
      "travailler": 6771,
      "prétendant": 6772,
      "délicatesse": 6773,
      "follet": 6774,
      "importunité": 6775,
      "soldats": 6776,
      "allégua": 6777,
      "alléguer": 6778,
      "alléguait": 6779,
      "1691": 6780,
      "achever": 6781,
      "achevé": 6782,
      "cences": 6783,
      "censur": 6784,
      "censure": 6785,
      "fâche": 6786,
      "giron": 6787,
      "juré": 6788,
      "meubles": 6789,
      "égay": 6790,
      "éveilla": 6791,
      "écuyer": 6792,
      "reviendrait": 6793,
      "eussent": 6794,
      "chétive": 6795,
      "chétifs": 6796,
      "inquiet": 6797,
      "inquiétude": 6798,
      "parentage": 6799,
      "alliés": 6800,
      "sacrifie": 6801,
      "sacrifices": 6802,
      "étourdi": 6803,
      "étourdis": 6804,
      "étourdie": 6805,
      "établi": 6806,
      "consoler": 6807,
      "passager": 6808,
      "ambitieux": 6809,
      "complot": 6810,
      "désespéré": 6811,
      "détruite": 6812,
      "grimpa": 6813,
      "grimpant": 6814,
      "magister": 6815,
      "abondamment": 6816,
      "projets": 6817,
      "cochet": 6818,
      "plongé": 6819,
      "renvoya": 6820,
      "rencontrent": 6821,
      "traîtres": 6822,
      "arrivée": 6823,
      "minerve": 6824,
      "honnêtement": 6825,
      "assister": 6826,
      "superflu": 6827,
      "tapisserie": 6828,
      "scélérats": 6829,
      "capables": 6830,
      "capitaine": 6831,
      "clartés": 6832,
      "dindon": 6833,
      "fleuries": 6834,
      "fabul": 6835,
      "ifiant": 6836,
      "imagina": 6837,
      "lunette": 6838,
      "mutilé": 6839,
      "rhét": 6840,
      "ranger": 6841,
      "ravir": 6842,
      "turc": 6843,
      "turcs": 6844,
      "turbul": 6845,
      "écolier": 6846,
      "envoyer": 6847,
      "environne": 6848,
      "outrages": 6849,
      "annonce": 6850,
      "annonçait": 6851,
      "étonnement": 6852,
      "divinité": 6853,
      "bienfaiteur": 6854,
      "bienfaitrice": 6855,
      "accommode": 6856,
      "réveille": 6857,
      "réveillée": 6858,
      "logeant": 6859,
      "douceur": 6860,
      "laissaient": 6861,
      "attention": 6862,
      "possession": 6863,
      "trafiquant": 6864,
      "compliments": 6865,
      "glouton": 6866,
      "contraints": 6867,
      "échapper": 6868,
      "hardiment": 6869,
      "hardiesse": 6870,
      "détourner": 6871,
      "fatigues": 6872,
      "royaumes": 6873,
      "dauphins": 6874,
      "diligence": 6875,
      "aïeux": 6876,
      "bala": 6877,
      "battaient": 6878,
      "deniers": 6879,
      "denrée": 6880,
      "daigna": 6881,
      "gagnez": 6882,
      "gouverner": 6883,
      "gouvernement": 6884,
      "racaille": 6885,
      "rangs": 6886,
      "tyrans": 6887,
      "envieuse": 6888,
      "enterré": 6889,
      "enterrer": 6890,
      "ombrages": 6891,
      "tracer": 6892,
      "avocat": 6893,
      "violents": 6894,
      "découvrit": 6895,
      "découvrir": 6896,
      "décider": 6897,
      "député": 6898,
      "déclarer": 6899,
      "montrent": 6900,
      "mignonne": 6901,
      "accompagné": 6902,
      "accompagner": 6903,
      "accusait": 6904,
      "accusateur": 6905,
      "guerres": 6906,
      "planter": 6907,
      "enfuir": 6908,
      "exprimer": 6909,
      "excellent": 6910,
      "excellence": 6911,
      "brûle": 6912,
      "brûla": 6913,
      "mettrais": 6914,
      "obstine": 6915,
      "obsèques": 6916,
      "commencement": 6917,
      "soulager": 6918,
      "précipit": 6919,
      "garantir": 6920,
      "demeurant": 6921,
      "tribunal": 6922,
      "tribuait": 6923,
      "répandu": 6924,
      "répandit": 6925,
      "répandue": 6926,
      "écriteau": 6927,
      "célestes": 6928,
      "fuyons": 6929,
      "fuyaient": 6930,
      "naturels": 6931,
      "étroite": 6932,
      "métamorphose": 6933,
      "favori": 6934,
      "descendent": 6935,
      "souveraines": 6936,
      "perroquets": 6937,
      "aquil": 6938,
      "adoucir": 6939,
      "clopin": 6940,
      "imiter": 6941,
      "imitateur": 6942,
      "linge": 6943,
      "purger": 6944,
      "paisible": 6945,
      "vaudrait": 6946,
      "vaillance": 6947,
      "élément": 6948,
      "éléments": 6949,
      "enrichit": 6950,
      "refuge": 6951,
      "essayons": 6952,
      "essayée": 6953,
      "astrologue": 6954,
      "astrologie": 6955,
      "contempler": 6956,
      "amplement": 6957,
      "volatile": 6958,
      "vigilant": 6959,
      "dépouiller": 6960,
      "approuve": 6961,
      "vergers": 6962,
      "ménagerie": 6963,
      "tourmente": 6964,
      "emprunt": 6965,
      "soûl": 6966,
      "deviendront": 6967,
      "sauvez": 6968,
      "chagrins": 6969,
      "promener": 6970,
      "montagnes": 6971,
      "embrasser": 6972,
      "statue": 6973,
      "statuaire": 6974,
      "succombe": 6975,
      "accoutumée": 6976,
      "recueillir": 6977,
      "ambassadeurs": 6978,
      "hospital": 6979,
      "hospitalier": 6980,
      "accommoder": 6981,
      "augustes": 6982,
      "envelopper": 6983,
      "enveloppé": 6984,
      "adroite": 6985,
      "bûcheron": 6986,
      "ctifie": 6987,
      "couverte": 6988,
      "couverts": 6989,
      "daims": 6990,
      "faste": 6991,
      "hôpitaux": 6992,
      "idiot": 6993,
      "idiots": 6994,
      "japon": 6995,
      "japet": 6996,
      "mouvement": 6997,
      "mouvements": 6998,
      "mulets": 6999,
      "notaire": 7000,
      "pilpay": 7001,
      "ravissants": 7002,
      "remercie": 7003,
      "espagne": 7004,
      "lacets": 7005,
      "entrailles": 7006,
      "chérit": 7007,
      "chimère": 7008,
      "chimères": 7009,
      "prairie": 7010,
      "prairies": 7011,
      "siffle": 7012,
      "jeûne": 7013,
      "jeûner": 7014,
      "allégresse": 7015,
      "allégorie": 7016,
      "étangs": 7017,
      "pourriez": 7018,
      "gravure": 7019,
      "prodigue": 7020,
      "pléiade": 7021,
      "plaidant": 7022,
      "réglé": 7023,
      "régler": 7024,
      "réduite": 7025,
      "régnera": 7026,
      "dissimuler": 7027,
      "enfouir": 7028,
      "renoncer": 7029,
      "prévôts": 7030,
      "poltron": 7031,
      "pollux": 7032,
      "traîner": 7033,
      "généreux": 7034,
      "modérer": 7035,
      "plaisanterie": 7036,
      "célébr": 7037,
      "célébrer": 7038,
      "célèbre": 7039,
      "célèbres": 7040,
      "pénétrer": 7041,
      "aventurier": 7042,
      "défendant": 7043,
      "dompter": 7044,
      "grimace": 7045,
      "honorés": 7046,
      "épandus": 7047,
      "coiffure": 7048,
      "coiffeuses": 7049,
      "abandonner": 7050,
      "zéphirs": 7051,
      "tyrannique": 7052,
      "corrigeant": 7053,
      "jouvenceaux": 7054,
      "magnificences": 7055,
      "mélancolie": 7056,
      "mélancolique": 7057,
      "bêlant": 7058,
      "bloc": 7059,
      "causé": 7060,
      "fraî": 7061,
      "fléchir": 7062,
      "fagot": 7063,
      "fuseaux": 7064,
      "gaillard": 7065,
      "hâter": 7066,
      "neuf": 7067,
      "ppée": 7068,
      "pyg": 7069,
      "pâtit": 7070,
      "pythagore": 7071,
      "roussin": 7072,
      "routier": 7073,
      "symbole": 7074,
      "soyons": 7075,
      "vacarme": 7076,
      "ylla": 7077,
      "évoque": 7078,
      "épaules": 7079,
      "reconnue": 7080,
      "registres": 7081,
      "esquiver": 7082,
      "entasser": 7083,
      "origine": 7084,
      "infinie": 7085,
      "prouesse": 7086,
      "associés": 7087,
      "parasite": 7088,
      "atome": 7089,
      "sabliere": 7090,
      "conquêtes": 7091,
      "conséquent": 7092,
      "concurrent": 7093,
      "conjoncture": 7094,
      "commande": 7095,
      "dignités": 7096,
      "diverses": 7097,
      "dépourvue": 7098,
      "désaltér": 7099,
      "dérobait": 7100,
      "cicéron": 7101,
      "appointeur": 7102,
      "aborder": 7103,
      "ressuscite": 7104,
      "réservé": 7105,
      "réclame": 7106,
      "experts": 7107,
      "excessive": 7108,
      "empaquet": 7109,
      "insolent": 7110,
      "humanité": 7111,
      "obscur": 7112,
      "négligé": 7113,
      "possède": 7114,
      "raillait": 7115,
      "impuissants": 7116,
      "singulière": 7117,
      "bouteille": 7118,
      "chambrière": 7119,
      "immense": 7120,
      "imparfaitement": 7121,
      "bassets": 7122,
      "efforcer": 7123,
      "citrouille": 7124,
      "échauffé": 7125,
      "embrass": 7126,
      "différemment": 7127,
      "assistés": 7128,
      "grippeminaud": 7129,
      "suffisamment": 7130,
      "achèver": 7131,
      "acheter": 7132,
      "posséderait": 7133,
      "femelles": 7134,
      "filandières": 7135,
      "profanes": 7136,
      "babillarde": 7137,
      "entraîne": 7138,
      "éclairés": 7139,
      "fatiguons": 7140,
      "agréez": 7141,
      "badinant": 7142,
      "hoqueton": 7143,
      "contemporaine": 7144,
      "emprunté": 7145,
      "quadrupèdes": 7146,
      "rhinocéros": 7147,
      "intelligence": 7148,
      "déguiser": 7149,
      "exécuter": 7150,
      "août": 7151,
      "agnès": 7152,
      "atropos": 7153,
      "bousseau": 7154,
      "bagatelle": 7155,
      "boccace": 7156,
      "ballade": 7157,
      "elephant": 7158,
      "ecolier": 7159,
      "furieux": 7160,
      "faucille": 7161,
      "hantaient": 7162,
      "jolie": 7163,
      "junon": 7164,
      "mâchoire": 7165,
      "navire": 7166,
      "rhume": 7167,
      "silence": 7168,
      "thomas": 7169,
      "vassaux": 7170,
      "zotti": 7171,
      "épuise": 7172,
      "écharpe": 7173,
      "émoucheur": 7174,
      "évanouit": 7175,
      "encombre": 7176,
      "oudry": 7177,
      "reliques": 7178,
      "rebrous": 7179,
      "remédie": 7180,
      "redouter": 7181,
      "reims": 7182,
      "reliefs": 7183,
      "regrets": 7184,
      "degrés": 7185,
      "anguille": 7186,
      "escadrons": 7187,
      "esclandre": 7188,
      "illusion": 7189,
      "enterrement": 7190,
      "artifice": 7191,
      "arcadie": 7192,
      "aristote": 7193,
      "incroyable": 7194,
      "assaisonne": 7195,
      "astronomie": 7196,
      "avorton": 7197,
      "étoffe": 7198,
      "conviés": 7199,
      "consumer": 7200,
      "passeport": 7201,
      "amphitrite": 7202,
      "croupe": 7203,
      "digérer": 7204,
      "délogèrent": 7205,
      "matelots": 7206,
      "magasins": 7207,
      "maximes": 7208,
      "mademoiselle": 7209,
      "apothéose": 7210,
      "apparemment": 7211,
      "bienveillance": 7212,
      "rigueurs": 7213,
      "accomplie": 7214,
      "proverbe": 7215,
      "protéger": 7216,
      "provision": 7217,
      "procureur": 7218,
      "régaler": 7219,
      "carrosses": 7220,
      "exceller": 7221,
      "manifeste": 7222,
      "rajeunie": 7223,
      "empédocle": 7224,
      "agresseur": 7225,
      "ménénius": 7226,
      "méfiance": 7227,
      "loayza": 7228,
      "nonobstant": 7229,
      "souriquois": 7230,
      "polyphème": 7231,
      "honnêteté": 7232,
      "offrandes": 7233,
      "effrayé": 7234,
      "bizarre": 7235,
      "vraisemblablement": 7236,
      "ruisseaux": 7237,
      "conseillers": 7238,
      "embouchure": 7239,
      "damoiselle": 7240,
      "!...": 7241,
      "\"(": 7242,
      "\"[...]": 7243,
      "(-": 7244,
      "):": 7245,
      "**": 7246,
      "*,": 7247,
      "01": 7248,
      "0f": 7249,
      "10": 7250,
      "1a": 7251,
      "25": 7252,
      "200": 7253,
      "39": 7254,
      "49": 7255,
      "4d": 7256,
      "54": 7257,
      "55": 7258,
      "547": 7259,
      "69": 7260,
      "625": 7261,
      "71": 7262,
      "89": 7263,
      "99": 7264,
      "::": 7265,
      ";.": 7266,
      "az": 7267,
      "aque": 7268,
      "ales": 7269,
      "apr": 7270,
      "adu": 7271,
      "ares": 7272,
      "aître": 7273,
      "achar": 7274,
      "apré": 7275,
      "ada": 7276,
      "ajuste": 7277,
      "achait": 7278,
      "afier": 7279,
      "azon": 7280,
      "alage": 7281,
      "aéton": 7282,
      "aciers": 7283,
      "bde": 7284,
      "bant": 7285,
      "bans": 7286,
      "bét": 7287,
      "bain": 7288,
      "bère": 7289,
      "bont": 7290,
      "baut": 7291,
      "bré": 7292,
      "bût": 7293,
      "beurs": 7294,
      "bale": 7295,
      "bail": 7296,
      "bette": 7297,
      "bile": 7298,
      "baign": 7299,
      "baller": 7300,
      "burent": 7301,
      "baisé": 7302,
      "bœufs": 7303,
      "banc": 7304,
      "bray": 7305,
      "blouis": 7306,
      "bets": 7307,
      "bomb": 7308,
      "barrière": 7309,
      "bylle": 7310,
      "cf": 7311,
      "ck": 7312,
      "cà": 7313,
      "cte": 7314,
      "cles": 7315,
      "cien": 7316,
      "cain": 7317,
      "cort": 7318,
      "cois": 7319,
      "cut": 7320,
      "cres": 7321,
      "cac": 7322,
      "ctu": 7323,
      "cler": 7324,
      "cné": 7325,
      "cèrent": 7326,
      "cail": 7327,
      "clit": 7328,
      "clan": 7329,
      "cande": 7330,
      "caise": 7331,
      "cloi": 7332,
      "ccoq": 7333,
      "cyr": 7334,
      "cali": 7335,
      "calli": 7336,
      "calier": 7337,
      "ccenseur": 7338,
      "classes": 7339,
      "do": 7340,
      "dar": 7341,
      "dais": 7342,
      "dien": 7343,
      "daire": 7344,
      "dand": 7345,
      "daient": 7346,
      "dût": 7347,
      "dors": 7348,
      "dale": 7349,
      "dore": 7350,
      "dresse": 7351,
      "daignez": 7352,
      "dote": 7353,
      "d0f": 7354,
      "ev": 7355,
      "eun": 7356,
      "eche": 7357,
      "eils": 7358,
      "eph": 7359,
      "elo": 7360,
      "eds": 7361,
      "epi": 7362,
      "elet": 7363,
      "echan": 7364,
      "erez": 7365,
      "epon": 7366,
      "egale": 7367,
      "ebus": 7368,
      "ebran": 7369,
      "eprouv": 7370,
      "ephè": 7371,
      "econduire": 7372,
      "echo": 7373,
      "egrat": 7374,
      "eillir": 7375,
      "ecourté": 7376,
      "fla": 7377,
      "fend": 7378,
      "fres": 7379,
      "fac": 7380,
      "fér": 7381,
      "fendre": 7382,
      "flo": 7383,
      "fang": 7384,
      "fore": 7385,
      "fange": 7386,
      "fiez": 7387,
      "fente": 7388,
      "fassi": 7389,
      "fards": 7390,
      "fentes": 7391,
      "flue": 7392,
      "fétu": 7393,
      "faction": 7394,
      "faillis": 7395,
      "gê": 7396,
      "gî": 7397,
      "gan": 7398,
      "git": 7399,
      "gau": 7400,
      "get": 7401,
      "gla": 7402,
      "gien": 7403,
      "gge": 7404,
      "gam": 7405,
      "goin": 7406,
      "gand": 7407,
      "gier": 7408,
      "glé": 7409,
      "gins": 7410,
      "glon": 7411,
      "goire": 7412,
      "gay": 7413,
      "gette": 7414,
      "gié": 7415,
      "gène": 7416,
      "gains": 7417,
      "gide": 7418,
      "glace": 7419,
      "ging": 7420,
      "gmentant": 7421,
      "hs": 7422,
      "hen": 7423,
      "hit": 7424,
      "hes": 7425,
      "his": 7426,
      "hét": 7427,
      "hort": 7428,
      "hut": 7429,
      "hée": 7430,
      "hier": 7431,
      "hure": 7432,
      "hard": 7433,
      "haus": 7434,
      "hât": 7435,
      "hoc": 7436,
      "happ": 7437,
      "hore": 7438,
      "hart": 7439,
      "hol": 7440,
      "haie": 7441,
      "haires": 7442,
      "happer": 7443,
      "housse": 7444,
      "ia": 7445,
      "io": 7446,
      "iv": 7447,
      "idon": 7448,
      "ivre": 7449,
      "iph": 7450,
      "ivit": 7451,
      "ipo": 7452,
      "igé": 7453,
      "idez": 7454,
      "ième": 7455,
      "ibles": 7456,
      "ieuse": 7457,
      "iateur": 7458,
      "ibé": 7459,
      "izon": 7460,
      "ibul": 7461,
      "igeur": 7462,
      "iature": 7463,
      "images": 7464,
      "ibaut": 7465,
      "icac": 7466,
      "jar": 7467,
      "jav": 7468,
      "jac": 7469,
      "jats": 7470,
      "jail": 7471,
      "jole": 7472,
      "jode": 7473,
      "jatte": 7474,
      "jolis": 7475,
      "khs": 7476,
      "ld": 7477,
      "lt": 7478,
      "lloup": 7479,
      "lât": 7480,
      "lâne": 7481,
      "lèvre": 7482,
      "lène": 7483,
      "lauri": 7484,
      "lpom": 7485,
      "linet": 7486,
      "lissement": 7487,
      "ms": 7488,
      "mlle": 7489,
      "mgr": 7490,
      "maire": 7491,
      "mos": 7492,
      "mès": 7493,
      "meure": 7494,
      "mence": 7495,
      "mue": 7496,
      "muni": 7497,
      "mûte": 7498,
      "massi": 7499,
      "mânes": 7500,
      "mâti": 7501,
      "mamie": 7502,
      "mordre": 7503,
      "mône": 7504,
      "mènent": 7505,
      "mousse": 7506,
      "ns": 7507,
      "nx": 7508,
      "nen": 7509,
      "nou": 7510,
      "nin": 7511,
      "nas": 7512,
      "nal": 7513,
      "nir": 7514,
      "nain": 7515,
      "nins": 7516,
      "nord": 7517,
      "nale": 7518,
      "navant": 7519,
      "neuse": 7520,
      "nymp": 7521,
      "nassi": 7522,
      "narc": 7523,
      "noix": 7524,
      "noires": 7525,
      "oï": 7526,
      "ola": 7527,
      "oser": 7528,
      "oder": 7529,
      "olant": 7530,
      "ogl": 7531,
      "otru": 7532,
      "odor": 7533,
      "otez": 7534,
      "ogén": 7535,
      "ocrite": 7536,
      "ogie": 7537,
      "oserais": 7538,
      "odité": 7539,
      "ovide": 7540,
      "odore": 7541,
      "ogène": 7542,
      "pô": 7543,
      "psi": 7544,
      "pest": 7545,
      "pans": 7546,
      "pand": 7547,
      "ptu": 7548,
      "pani": 7549,
      "pté": 7550,
      "pion": 7551,
      "psau": 7552,
      "paille": 7553,
      "pante": 7554,
      "ponde": 7555,
      "pteur": 7556,
      "pyr": 7557,
      "pâti": 7558,
      "pira": 7559,
      "ptile": 7560,
      "paillar": 7561,
      "rau": 7562,
      "rand": 7563,
      "rable": 7564,
      "rents": 7565,
      "roc": 7566,
      "rante": 7567,
      "rist": 7568,
      "rart": 7569,
      "râte": 7570,
      "range": 7571,
      "roses": 7572,
      "raccour": 7573,
      "rôle": 7574,
      "rentrer": 7575,
      "rallu": 7576,
      "rosse": 7577,
      "rabattit": 7578,
      "rétablir": 7579,
      "renferme": 7580,
      "rétabli": 7581,
      "sè": 7582,
      "sis": 7583,
      "sser": 7584,
      "sér": 7585,
      "spa": 7586,
      "stu": 7587,
      "sût": 7588,
      "sors": 7589,
      "sât": 7590,
      "ssent": 7591,
      "sence": 7592,
      "stent": 7593,
      "stra": 7594,
      "soie": 7595,
      "savent": 7596,
      "saign": 7597,
      "sème": 7598,
      "sceau": 7599,
      "symp": 7600,
      "saie": 7601,
      "sillon": 7602,
      "sanc": 7603,
      "sandre": 7604,
      "syst": 7605,
      "seté": 7606,
      "sphère": 7607,
      "sillèrent": 7608,
      "stare": 7609,
      "tet": 7610,
      "tat": 7611,
      "taut": 7612,
      "taient": 7613,
      "tée": 7614,
      "ttes": 7615,
      "tât": 7616,
      "tale": 7617,
      "toc": 7618,
      "tair": 7619,
      "thér": 7620,
      "taise": 7621,
      "tables": 7622,
      "tagne": 7623,
      "tane": 7624,
      "tisse": 7625,
      "taver": 7626,
      "teuse": 7627,
      "tendait": 7628,
      "toyer": 7629,
      "tailles": 7630,
      "teté": 7631,
      "taillis": 7632,
      "togén": 7633,
      "uques": 7634,
      "uvent": 7635,
      "uvant": 7636,
      "usons": 7637,
      "ueuse": 7638,
      "ulette": 7639,
      "usure": 7640,
      "ublait": 7641,
      "uption": 7642,
      "vî": 7643,
      "vet": 7644,
      "vaient": 7645,
      "vils": 7646,
      "vants": 7647,
      "vante": 7648,
      "vît": 7649,
      "véc": 7650,
      "vages": 7651,
      "vendait": 7652,
      "vesti": 7653,
      "vécus": 7654,
      "veté": 7655,
      "vrier": 7656,
      "vège": 7657,
      "vari": 7658,
      "vriers": 7659,
      "wit": 7660,
      "xa": 7661,
      "xant": 7662,
      "xand": 7663,
      "xante": 7664,
      "xii": 7665,
      "yère": 7666,
      "yco": 7667,
      "ybde": 7668,
      "zeux": 7669,
      "zzotti": 7670,
      "âtes": 7671,
      "âpre": 7672,
      "âges": 7673,
      "âpres": 7674,
      "âtres": 7675,
      "âsser": 7676,
      "çai": 7677,
      "çat": 7678,
      "çât": 7679,
      "çante": 7680,
      "èdes": 7681,
      "èbe": 7682,
      "èmes": 7683,
      "èbre": 7684,
      "èvent": 7685,
      "èges": 7686,
      "èdent": 7687,
      "éan": 7688,
      "étre": 7689,
      "élu": 7690,
      "ége": 7691,
      "éplu": 7692,
      "évi": 7693,
      "éman": 7694,
      "éph": 7695,
      "éop": 7696,
      "élar": 7697,
      "évent": 7698,
      "égar": 7699,
      "épouv": 7700,
      "échan": 7701,
      "étri": 7702,
      "éjou": 7703,
      "élit": 7704,
      "éché": 7705,
      "ébat": 7706,
      "éner": 7707,
      "épin": 7708,
      "éduc": 7709,
      "édir": 7710,
      "élè": 7711,
      "échange": 7712,
      "émine": 7713,
      "éperdu": 7714,
      "égor": 7715,
      "écile": 7716,
      "éances": 7717,
      "énis": 7718,
      "évê": 7719,
      "évertu": 7720,
      "élique": 7721,
      "éteint": 7722,
      "énates": 7723,
      "échansons": 7724,
      "épuiser": 7725,
      "égorger": 7726,
      "émité": 7727,
      "édifi": 7728,
      "écourté": 7729,
      "énig": 7730,
      "éprises": 7731,
      "émute": 7732,
      "éblouis": 7733,
      "émûte": 7734,
      "êmes": 7735,
      "êve": 7736,
      "êté": 7737,
      "îre": 7738,
      "îtrait": 7739,
      "îtras": 7740,
      "îtront": 7741,
      "ômes": 7742,
      "ônait": 7743,
      "ûment": 7744,
      "üet": 7745,
      "œilla": 7746,
      "enou": 7747,
      "enon": 7748,
      "enla": 7749,
      "enant": 7750,
      "endes": 7751,
      "enser": 7752,
      "ences": 7753,
      "enra": 7754,
      "enven": 7755,
      "envoir": 7756,
      "encontre": 7757,
      "encl": 7758,
      "ennée": 7759,
      "encli": 7760,
      "enjeux": 7761,
      "engou": 7762,
      "enchanter": 7763,
      "engag": 7764,
      "endement": 7765,
      "ensuivit": 7766,
      "envola": 7767,
      "enclose": 7768,
      "envolé": 7769,
      "engend": 7770,
      "engins": 7771,
      "enivre": 7772,
      "ennins": 7773,
      "leri": 7774,
      "lequel": 7775,
      "leure": 7776,
      "leva": 7777,
      "lequin": 7778,
      "levait": 7779,
      "levée": 7780,
      "lexandre": 7781,
      "levier": 7782,
      "legs": 7783,
      "oux": 7784,
      "ouin": 7785,
      "outit": 7786,
      "ouche": 7787,
      "oués": 7788,
      "ouille": 7789,
      "ouie": 7790,
      "ouaille": 7791,
      "outrés": 7792,
      "requi": 7793,
      "redit": 7794,
      "recet": 7795,
      "repu": 7796,
      "recette": 7797,
      "rebon": 7798,
      "refaire": 7799,
      "reins": 7800,
      "revoir": 7801,
      "redire": 7802,
      "remis": 7803,
      "retrait": 7804,
      "revois": 7805,
      "reurs": 7806,
      "recourt": 7807,
      "revoit": 7808,
      "refour": 7809,
      "reporte": 7810,
      "relles": 7811,
      "repasse": 7812,
      "retrouva": 7813,
      "repasser": 7814,
      "remu": 7815,
      "retrouver": 7816,
      "recul": 7817,
      "redouble": 7818,
      "reprise": 7819,
      "redemande": 7820,
      "recule": 7821,
      "rebats": 7822,
      "repli": 7823,
      "reprends": 7824,
      "reparti": 7825,
      "redoute": 7826,
      "recoin": 7827,
      "recherche": 7828,
      "reposer": 7829,
      "reviendra": 7830,
      "reprenez": 7831,
      "regagner": 7832,
      "revue": 7833,
      "refroi": 7834,
      "redout": 7835,
      "repê": 7836,
      "revend": 7837,
      "revendre": 7838,
      "reconnaître": 7839,
      "reconnaît": 7840,
      "revenant": 7841,
      "repartie": 7842,
      "retenant": 7843,
      "remédi": 7844,
      "retoucher": 7845,
      "remontr": 7846,
      "revenue": 7847,
      "referme": 7848,
      "remonter": 7849,
      "repais": 7850,
      "recourut": 7851,
      "revenu": 7852,
      "revenus": 7853,
      "retrouvent": 7854,
      "redevien": 7855,
      "retenu": 7856,
      "replonge": 7857,
      "revêtu": 7858,
      "reguin": 7859,
      "retranche": 7860,
      "recommencer": 7861,
      "rejoints": 7862,
      "refuse": 7863,
      "relevé": 7864,
      "redevenir": 7865,
      "recrée": 7866,
      "rediseurs": 7867,
      "regagna": 7868,
      "reclus": 7869,
      "revêt": 7870,
      "retrouvée": 7871,
      "regardes": 7872,
      "rebattu": 7873,
      "rectifie": 7874,
      "recommande": 7875,
      "redresse": 7876,
      "reging": 7877,
      "rehaus": 7878,
      "rejail": 7879,
      "reptile": 7880,
      "releva": 7881,
      "aides": 7882,
      "aiment": 7883,
      "aigu": 7884,
      "airé": 7885,
      "aigne": 7886,
      "aibl": 7887,
      "aigret": 7888,
      "aidiez": 7889,
      "aidaient": 7890,
      "aiglon": 7891,
      "ondis": 7892,
      "onder": 7893,
      "onisse": 7894,
      "onze": 7895,
      "dera": 7896,
      "quo": 7897,
      "quot": 7898,
      "queurs": 7899,
      "quants": 7900,
      "quint": 7901,
      "quents": 7902,
      "quilles": 7903,
      "quali": 7904,
      "quillons": 7905,
      "quoli": 7906,
      "quîtes": 7907,
      "aner": 7908,
      "anet": 7909,
      "anis": 7910,
      "andé": 7911,
      "anage": 7912,
      "anni": 7913,
      "anna": 7914,
      "anach": 7915,
      "ança": 7916,
      "anciers": 7917,
      "erte": 7918,
      "eras": 7919,
      "eront": 7920,
      "erts": 7921,
      "ermit": 7922,
      "erraient": 7923,
      "ertume": 7924,
      "errante": 7925,
      "ites": 7926,
      "iteur": 7927,
      "itables": 7928,
      "itys": 7929,
      "ese": 7930,
      "essi": 7931,
      "escr": 7932,
      "esses": 7933,
      "escor": 7934,
      "escu": 7935,
      "essent": 7936,
      "espé": 7937,
      "essouff": 7938,
      "escab": 7939,
      "esauri": 7940,
      "esplan": 7941,
      "escroquant": 7942,
      "escroquer": 7943,
      "escroque": 7944,
      "espions": 7945,
      "escalier": 7946,
      "espion": 7947,
      "essaie": 7948,
      "aume": 7949,
      "aulait": 7950,
      "autel": 7951,
      "auber": 7952,
      "auris": 7953,
      "audir": 7954,
      "aurons": 7955,
      "auça": 7956,
      "augmentant": 7957,
      "aumône": 7958,
      "etc": 7959,
      "etre": 7960,
      "etaient": 7961,
      "etang": 7962,
      "eteaux": 7963,
      "etrange": 7964,
      "ila": 7965,
      "illait": 7966,
      "illit": 7967,
      "iliateur": 7968,
      "ilèges": 7969,
      "union": 7970,
      "unanime": 7971,
      "unément": 7972,
      "lade": 7973,
      "lacon": 7974,
      "lache": 7975,
      "lape": 7976,
      "lave": 7977,
      "lava": 7978,
      "lapi": 7979,
      "lapé": 7980,
      "labour": 7981,
      "laquelle": 7982,
      "lapon": 7983,
      "labé": 7984,
      "lacée": 7985,
      "lampe": 7986,
      "lahore": 7987,
      "entis": 7988,
      "entin": 7989,
      "entés": 7990,
      "entasse": 7991,
      "entête": 7992,
      "entats": 7993,
      "entraient": 7994,
      "entendait": 7995,
      "entrés": 7996,
      "entrant": 7997,
      "entendement": 7998,
      "seme": 7999,
      "secr": 8000,
      "sement": 8001,
      "secour": 8002,
      "semain": 8003,
      "seine": 8004,
      "semé": 8005,
      "secou": 8006,
      "semen": 8007,
      "sect": 8008,
      "selles": 8009,
      "semés": 8010,
      "semez": 8011,
      "serein": 8012,
      "seigeur": 8013,
      "seulette": 8014,
      "oiles": 8015,
      "oigne": 8016,
      "euf": 8017,
      "eumé": 8018,
      "arche": 8019,
      "armoi": 8020,
      "arra": 8021,
      "arine": 8022,
      "ardem": 8023,
      "arquer": 8024,
      "ardez": 8025,
      "arpent": 8026,
      "armait": 8027,
      "arbor": 8028,
      "archi": 8029,
      "ardus": 8030,
      "arbal": 8031,
      "armoire": 8032,
      "ardement": 8033,
      "argile": 8034,
      "arbuste": 8035,
      "arith": 8036,
      "aréop": 8037,
      "chen": 8038,
      "chis": 8039,
      "chage": 8040,
      "chus": 8041,
      "chard": 8042,
      "chaus": 8043,
      "chance": 8044,
      "choy": 8045,
      "choc": 8046,
      "chette": 8047,
      "chères": 8048,
      "chole": 8049,
      "chène": 8050,
      "châte": 8051,
      "chise": 8052,
      "chirait": 8053,
      "chiez": 8054,
      "chards": 8055,
      "chettes": 8056,
      "chnique": 8057,
      "christ": 8058,
      "ourné": 8059,
      "ourdir": 8060,
      "ourdira": 8061,
      "temi": 8062,
      "telas": 8063,
      "tements": 8064,
      "tembre": 8065,
      "terelles": 8066,
      "technique": 8067,
      "cein": 8068,
      "celer": 8069,
      "cemot": 8070,
      "cevant": 8071,
      "cemment": 8072,
      "orce": 8073,
      "orat": 8074,
      "orag": 8075,
      "orné": 8076,
      "ordonn": 8077,
      "orges": 8078,
      "ordonne": 8079,
      "orbi": 8080,
      "ordonner": 8081,
      "orique": 8082,
      "ordonna": 8083,
      "ornière": 8084,
      "orient": 8085,
      "ornait": 8086,
      "orateurs": 8087,
      "nelle": 8088,
      "neveux": 8089,
      "nerez": 8090,
      "nect": 8091,
      "nept": 8092,
      "nevelet": 8093,
      "antres": 8094,
      "antipo": 8095,
      "ises": 8096,
      "issu": 8097,
      "isons": 8098,
      "isés": 8099,
      "issiez": 8100,
      "issante": 8101,
      "issaires": 8102,
      "iserais": 8103,
      "iscence": 8104,
      "iné": 8105,
      "intit": 8106,
      "invo": 8107,
      "incom": 8108,
      "inut": 8109,
      "insur": 8110,
      "inés": 8111,
      "inac": 8112,
      "incar": 8113,
      "inable": 8114,
      "ineurs": 8115,
      "inju": 8116,
      "indou": 8117,
      "inrent": 8118,
      "infor": 8119,
      "ingé": 8120,
      "indem": 8121,
      "inière": 8122,
      "inad": 8123,
      "intri": 8124,
      "infortune": 8125,
      "inquer": 8126,
      "incertains": 8127,
      "infus": 8128,
      "indus": 8129,
      "inouï": 8130,
      "informe": 8131,
      "inquis": 8132,
      "injusti": 8133,
      "indoc": 8134,
      "indéc": 8135,
      "inhumaine": 8136,
      "infidèle": 8137,
      "indifférents": 8138,
      "incertaines": 8139,
      "insupport": 8140,
      "indifférence": 8141,
      "inégaux": 8142,
      "indirectement": 8143,
      "inhabité": 8144,
      "incapables": 8145,
      "inhumanité": 8146,
      "indien": 8147,
      "pros": 8148,
      "print": 8149,
      "prirent": 8150,
      "prône": 8151,
      "prôner": 8152,
      "prônait": 8153,
      "prentis": 8154,
      "ousailles": 8155,
      "treill": 8156,
      "tresse": 8157,
      "tremble": 8158,
      "trempe": 8159,
      "treuvent": 8160,
      "omon": 8161,
      "omit": 8162,
      "omac": 8163,
      "omot": 8164,
      "omad": 8165,
      "omède": 8166,
      "ominable": 8167,
      "urée": 8168,
      "urgie": 8169,
      "assom": 8170,
      "assot": 8171,
      "assomme": 8172,
      "asylla": 8173,
      "mere": 8174,
      "meaux": 8175,
      "melpom": 8176,
      "melade": 8177,
      "aisie": 8178,
      "aissants": 8179,
      "lule": 8180,
      "lules": 8181,
      "luci": 8182,
      "lumin": 8183,
      "luences": 8184,
      "trai": 8185,
      "troi": 8186,
      "trant": 8187,
      "tris": 8188,
      "traire": 8189,
      "trât": 8190,
      "trist": 8191,
      "traper": 8192,
      "trains": 8193,
      "trêve": 8194,
      "trinquer": 8195,
      "songeur": 8196,
      "sies": 8197,
      "sime": 8198,
      "sirait": 8199,
      "siers": 8200,
      "sienne": 8201,
      "signé": 8202,
      "sidence": 8203,
      "sibylle": 8204,
      "estim": 8205,
      "estafier": 8206,
      "estomac": 8207,
      "avre": 8208,
      "aval": 8209,
      "avane": 8210,
      "avise": 8211,
      "aviez": 8212,
      "avares": 8213,
      "pars": 8214,
      "paré": 8215,
      "parte": 8216,
      "parles": 8217,
      "parage": 8218,
      "parée": 8219,
      "parus": 8220,
      "parie": 8221,
      "parure": 8222,
      "parût": 8223,
      "parêtre": 8224,
      "parable": 8225,
      "parleurs": 8226,
      "parang": 8227,
      "parble": 8228,
      "parbi": 8229,
      "parvenir": 8230,
      "parvis": 8231,
      "parurent": 8232,
      "parente": 8233,
      "parvenu": 8234,
      "parlaient": 8235,
      "iendront": 8236,
      "ates": 8237,
      "attes": 8238,
      "attrait": 8239,
      "atours": 8240,
      "attire": 8241,
      "athonte": 8242,
      "attique": 8243,
      "attribu": 8244,
      "attribue": 8245,
      "attribuer": 8246,
      "atourné": 8247,
      "gez": 8248,
      "geait": 8249,
      "geais": 8250,
      "gelé": 8251,
      "georges": 8252,
      "jecture": 8253,
      "destru": 8254,
      "destine": 8255,
      "desserrant": 8256,
      "dessillèrent": 8257,
      "alès": 8258,
      "altes": 8259,
      "allon": 8260,
      "alth": 8261,
      "altère": 8262,
      "altier": 8263,
      "allassent": 8264,
      "alogie": 8265,
      "alandé": 8266,
      "toux": 8267,
      "touchez": 8268,
      "toucha": 8269,
      "tourets": 8270,
      "touchaient": 8271,
      "touchent": 8272,
      "touchais": 8273,
      "touchiez": 8274,
      "dules": 8275,
      "dupe": 8276,
      "duvain": 8277,
      "dupes": 8278,
      "dupés": 8279,
      "duchesse": 8280,
      "duisent": 8281,
      "duretés": 8282,
      "sacr": 8283,
      "sami": 8284,
      "sachez": 8285,
      "sacs": 8286,
      "sapin": 8287,
      "sablon": 8288,
      "sacrée": 8289,
      "sagette": 8290,
      "éter": 8291,
      "étendre": 8292,
      "étale": 8293,
      "étendait": 8294,
      "étaie": 8295,
      "étendit": 8296,
      "étaler": 8297,
      "étisait": 8298,
      "éternel": 8299,
      "étys": 8300,
      "étalage": 8301,
      "éthée": 8302,
      "étoiles": 8303,
      "éteuf": 8304,
      "pourvoy": 8305,
      "pourpre": 8306,
      "pourpris": 8307,
      "poursuite": 8308,
      "poursuivi": 8309,
      "poursuivant": 8310,
      "poursuivait": 8311,
      "quivous": 8312,
      "quimp": 8313,
      "quipro": 8314,
      "iré": 8315,
      "iras": 8316,
      "irons": 8317,
      "irmé": 8318,
      "irion": 8319,
      "irru": 8320,
      "irlandes": 8321,
      "contant": 8322,
      "conti": 8323,
      "conven": 8324,
      "convie": 8325,
      "conju": 8326,
      "convers": 8327,
      "connu": 8328,
      "convoi": 8329,
      "concert": 8330,
      "condre": 8331,
      "confon": 8332,
      "conten": 8333,
      "confond": 8334,
      "confu": 8335,
      "convenir": 8336,
      "consens": 8337,
      "convint": 8338,
      "console": 8339,
      "conteur": 8340,
      "contenir": 8341,
      "conduit": 8342,
      "confier": 8343,
      "connue": 8344,
      "contribut": 8345,
      "consenti": 8346,
      "concorde": 8347,
      "conjur": 8348,
      "conjure": 8349,
      "concourait": 8350,
      "conscience": 8351,
      "conviendrait": 8352,
      "concitoyen": 8353,
      "concevoir": 8354,
      "connues": 8355,
      "contenu": 8356,
      "conviennent": 8357,
      "conservent": 8358,
      "concitoyens": 8359,
      "conquise": 8360,
      "conserve": 8361,
      "contribuer": 8362,
      "conçus": 8363,
      "consacre": 8364,
      "convaincu": 8365,
      "contribuait": 8366,
      "conrart": 8367,
      "conjecture": 8368,
      "pasces": 8369,
      "passons": 8370,
      "passiez": 8371,
      "pasteurs": 8372,
      "ortol": 8373,
      "lide": 8374,
      "lise": 8375,
      "liait": 8376,
      "lige": 8377,
      "liaux": 8378,
      "lima": 8379,
      "limon": 8380,
      "liés": 8381,
      "ligne": 8382,
      "liesse": 8383,
      "limite": 8384,
      "licornes": 8385,
      "liqueur": 8386,
      "limier": 8387,
      "libraire": 8388,
      "lippée": 8389,
      "limos": 8390,
      "liodore": 8391,
      "ames": 8392,
      "amend": 8393,
      "amine": 8394,
      "ambr": 8395,
      "ambre": 8396,
      "amante": 8397,
      "amuse": 8398,
      "ambi": 8399,
      "ampoule": 8400,
      "amples": 8401,
      "amusette": 8402,
      "amadou": 8403,
      "amusez": 8404,
      "amènent": 8405,
      "amorcé": 8406,
      "amusent": 8407,
      "amazon": 8408,
      "amertume": 8409,
      "amorce": 8410,
      "amathonte": 8411,
      "amalth": 8412,
      "dite": 8413,
      "dits": 8414,
      "ditions": 8415,
      "titue": 8416,
      "vots": 8417,
      "volat": 8418,
      "volue": 8419,
      "eurilas": 8420,
      "complu": 8421,
      "comté": 8422,
      "compris": 8423,
      "compos": 8424,
      "complais": 8425,
      "comporter": 8426,
      "comique": 8427,
      "complaire": 8428,
      "comparut": 8429,
      "combus": 8430,
      "commire": 8431,
      "comporta": 8432,
      "comparais": 8433,
      "comblait": 8434,
      "composa": 8435,
      "combattaient": 8436,
      "crac": 8437,
      "croir": 8438,
      "crot": 8439,
      "crus": 8440,
      "crure": 8441,
      "crût": 8442,
      "crasse": 8443,
      "crête": 8444,
      "crins": 8445,
      "criez": 8446,
      "craître": 8447,
      "crûment": 8448,
      "craigne": 8449,
      "crinière": 8450,
      "dié": 8451,
      "dion": 8452,
      "dies": 8453,
      "didon": 8454,
      "diants": 8455,
      "dients": 8456,
      "dimin": 8457,
      "divis": 8458,
      "dibu": 8459,
      "divert": 8460,
      "dicti": 8461,
      "divor": 8462,
      "dicton": 8463,
      "diapré": 8464,
      "diogène": 8465,
      "diomède": 8466,
      "endant": 8467,
      "endentés": 8468,
      "plumes": 8469,
      "plumé": 8470,
      "plumer": 8471,
      "plumez": 8472,
      "auxquels": 8473,
      "..)": 8474,
      "..:": 8475,
      "ouvrait": 8476,
      "ouvel": 8477,
      "ouvrez": 8478,
      "oises": 8479,
      "oisses": 8480,
      "oissée": 8481,
      "vides": 8482,
      "vivi": 8483,
      "viaire": 8484,
      "vières": 8485,
      "vivrai": 8486,
      "vivres": 8487,
      "vidant": 8488,
      "victi": 8489,
      "victu": 8490,
      "viola": 8491,
      "luire": 8492,
      "dédit": 8493,
      "déplu": 8494,
      "déche": 8495,
      "défait": 8496,
      "dépe": 8497,
      "déman": 8498,
      "déra": 8499,
      "départ": 8500,
      "démis": 8501,
      "déchar": 8502,
      "décou": 8503,
      "déplais": 8504,
      "dépeuple": 8505,
      "décré": 8506,
      "décam": 8507,
      "déjeune": 8508,
      "dérit": 8509,
      "dépose": 8510,
      "défaite": 8511,
      "déplaît": 8512,
      "dépenser": 8513,
      "déduit": 8514,
      "défaites": 8515,
      "débor": 8516,
      "dégén": 8517,
      "déités": 8518,
      "déchi": 8519,
      "décharge": 8520,
      "débal": 8521,
      "dégage": 8522,
      "désac": 8523,
      "découvert": 8524,
      "déclar": 8525,
      "déferai": 8526,
      "dérac": 8527,
      "désign": 8528,
      "dévelo": 8529,
      "déménage": 8530,
      "déroute": 8531,
      "dégât": 8532,
      "dégéné": 8533,
      "déchaî": 8534,
      "démord": 8535,
      "dépeupler": 8536,
      "dégourdi": 8537,
      "démembre": 8538,
      "démens": 8539,
      "dépôt": 8540,
      "déçus": 8541,
      "dédiez": 8542,
      "dépeupla": 8543,
      "décourag": 8544,
      "définis": 8545,
      "déroger": 8546,
      "démêler": 8547,
      "déifiant": 8548,
      "dédale": 8549,
      "dénou": 8550,
      "désirait": 8551,
      "grois": 8552,
      "grès": 8553,
      "graine": 8554,
      "gratt": 8555,
      "gronde": 8556,
      "grilla": 8557,
      "graver": 8558,
      "grabat": 8559,
      "grati": 8560,
      "grègues": 8561,
      "ontoire": 8562,
      "suons": 8563,
      "suve": 8564,
      "suprê": 8565,
      "sucrée": 8566,
      "cié": 8567,
      "ciles": 8568,
      "cière": 8569,
      "cipro": 8570,
      "cifi": 8571,
      "ciale": 8572,
      "ciseau": 8573,
      "ciseaux": 8574,
      "cipant": 8575,
      "civil": 8576,
      "civile": 8577,
      "mahom": 8578,
      "madr": 8579,
      "mazar": 8580,
      "maflue": 8581,
      "matelas": 8582,
      "serons": 8583,
      "sermon": 8584,
      "serva": 8585,
      "servoir": 8586,
      "serpo": 8587,
      "serrez": 8588,
      "serru": 8589,
      "serions": 8590,
      "seriez": 8591,
      "serrure": 8592,
      "aireaux": 8593,
      "apon": 8594,
      "apelle": 8595,
      "apos": 8596,
      "appuis": 8597,
      "apprit": 8598,
      "apport": 8599,
      "appart": 8600,
      "appri": 8601,
      "aplas": 8602,
      "aplan": 8603,
      "appren": 8604,
      "apprê": 8605,
      "apprêt": 8606,
      "appareil": 8607,
      "apportant": 8608,
      "apprêts": 8609,
      "apocr": 8610,
      "apprêter": 8611,
      "apennins": 8612,
      "apanage": 8613,
      "apprentis": 8614,
      "menti": 8615,
      "menté": 8616,
      "mentions": 8617,
      "mentirait": 8618,
      "absur": 8619,
      "abri": 8620,
      "abonde": 8621,
      "abol": 8622,
      "abhor": 8623,
      "abdère": 8624,
      "aboutit": 8625,
      "abominable": 8626,
      "abdérit": 8627,
      "uté": 8628,
      "utes": 8629,
      "biensé": 8630,
      "bienfai": 8631,
      "cessent": 8632,
      "cessible": 8633,
      "surent": 8634,
      "surprendre": 8635,
      "surpassant": 8636,
      "surate": 8637,
      "survenant": 8638,
      "surface": 8639,
      "surmonter": 8640,
      "surprenant": 8641,
      "surpassez": 8642,
      "chel": 8643,
      "chevre": 8644,
      "ellement": 8645,
      "osent": 8646,
      "osais": 8647,
      "osèrent": 8648,
      "osillèrent": 8649,
      "ostures": 8650,
      "andres": 8651,
      "andale": 8652,
      "andras": 8653,
      "cets": 8654,
      "dansant": 8655,
      "monceaux": 8656,
      "monseigeur": 8657,
      "monomot": 8658,
      "ésauris": 8659,
      "peuse": 8660,
      "peureux": 8661,
      "ffon": 8662,
      "ffier": 8663,
      "ffrer": 8664,
      "ffets": 8665,
      "ffiner": 8666,
      "autans": 8667,
      "bereau": 8668,
      "becière": 8669,
      "gnage": 8670,
      "gnard": 8671,
      "gnole": 8672,
      "resses": 8673,
      "resté": 8674,
      "ressent": 8675,
      "ressant": 8676,
      "ressemble": 8677,
      "ressemblait": 8678,
      "ressentir": 8679,
      "respir": 8680,
      "journées": 8681,
      "journal": 8682,
      "riait": 8683,
      "rias": 8684,
      "rides": 8685,
      "rieux": 8686,
      "riez": 8687,
      "rieurs": 8688,
      "rivie": 8689,
      "riants": 8690,
      "rider": 8691,
      "rimeur": 8692,
      "ricat": 8693,
      "rigueur": 8694,
      "richesse": 8695,
      "ridar": 8696,
      "ripaille": 8697,
      "rivages": 8698,
      "rimenté": 8699,
      "pures": 8700,
      "pucelle": 8701,
      "pulace": 8702,
      "mie": 8703,
      "milet": 8704,
      "miette": 8705,
      "miers": 8706,
      "midés": 8707,
      "miaulait": 8708,
      "michel": 8709,
      "acte": 8710,
      "actu": 8711,
      "accro": 8712,
      "access": 8713,
      "accompli": 8714,
      "acquise": 8715,
      "acolant": 8716,
      "courent": 8717,
      "courons": 8718,
      "courses": 8719,
      "courbe": 8720,
      "couraient": 8721,
      "courtes": 8722,
      "courts": 8723,
      "courber": 8724,
      "courante": 8725,
      "courriers": 8726,
      "coursiers": 8727,
      "ensé": 8728,
      "message": 8729,
      "messages": 8730,
      "mesures": 8731,
      "mesdames": 8732,
      "proven": 8733,
      "prolo": 8734,
      "propri": 8735,
      "proches": 8736,
      "procla": 8737,
      "propette": 8738,
      "proposa": 8739,
      "procné": 8740,
      "produisent": 8741,
      "progrès": 8742,
      "érit": 8743,
      "érant": 8744,
      "érence": 8745,
      "ératri": 8746,
      "érations": 8747,
      "érogl": 8748,
      "éruption": 8749,
      "érèbe": 8750,
      "septembre": 8751,
      "peaux": 8752,
      "pement": 8753,
      "peins": 8754,
      "pelus": 8755,
      "peignit": 8756,
      "gus": 8757,
      "gula": 8758,
      "gueux": 8759,
      "gust": 8760,
      "guides": 8761,
      "guenon": 8762,
      "guirlandes": 8763,
      "verres": 8764,
      "vertes": 8765,
      "verts": 8766,
      "verrait": 8767,
      "verrai": 8768,
      "verraient": 8769,
      "version": 8770,
      "verras": 8771,
      "verront": 8772,
      "verdure": 8773,
      "vermeille": 8774,
      "verrous": 8775,
      "verrions": 8776,
      "verget": 8777,
      "pales": 8778,
      "patel": 8779,
      "pagne": 8780,
      "paît": 8781,
      "patron": 8782,
      "patroc": 8783,
      "paîre": 8784,
      "otent": 8785,
      "ottant": 8786,
      "otages": 8787,
      "ierai": 8788,
      "pera": 8789,
      "perdes": 8790,
      "perche": 8791,
      "perdis": 8792,
      "percher": 8793,
      "perple": 8794,
      "perché": 8795,
      "percé": 8796,
      "perdront": 8797,
      "percés": 8798,
      "perdrai": 8799,
      "permise": 8800,
      "perclus": 8801,
      "perrau": 8802,
      "pointu": 8803,
      "pointes": 8804,
      "pointtous": 8805,
      "usant": 8806,
      "usée": 8807,
      "usca": 8808,
      "illeraient": 8809,
      "illette": 8810,
      "code": 8811,
      "cocher": 8812,
      "coph": 8813,
      "colon": 8814,
      "colas": 8815,
      "colette": 8816,
      "cocus": 8817,
      "coûter": 8818,
      "geries": 8819,
      "malin": 8820,
      "malfaire": 8821,
      "maline": 8822,
      "malsé": 8823,
      "malvoi": 8824,
      "malfais": 8825,
      "malion": 8826,
      "maltraiter": 8827,
      "maltraita": 8828,
      "malhonnêteté": 8829,
      "malotru": 8830,
      "malencontre": 8831,
      "ôts": 8832,
      "ôté": 8833,
      "ôtait": 8834,
      "plante": 8835,
      "plaie": 8836,
      "ardents": 8837,
      "cors": 8838,
      "corée": 8839,
      "cornu": 8840,
      "corsage": 8841,
      "cordonn": 8842,
      "cordons": 8843,
      "corroy": 8844,
      "cornue": 8845,
      "corrompre": 8846,
      "corrompt": 8847,
      "coridon": 8848,
      "corentin": 8849,
      "rément": 8850,
      "répri": 8851,
      "régis": 8852,
      "rémin": 8853,
      "réfu": 8854,
      "républi": 8855,
      "régné": 8856,
      "révér": 8857,
      "régale": 8858,
      "rérie": 8859,
      "réserver": 8860,
      "rénées": 8861,
      "réalités": 8862,
      "réduction": 8863,
      "réunir": 8864,
      "résonna": 8865,
      "réformer": 8866,
      "réfléchir": 8867,
      "résidence": 8868,
      "révolue": 8869,
      "récipro": 8870,
      "réservoir": 8871,
      "réellement": 8872,
      "terné": 8873,
      "termin": 8874,
      "territ": 8875,
      "terras": 8876,
      "ties": 8877,
      "tiles": 8878,
      "tige": 8879,
      "timon": 8880,
      "tible": 8881,
      "tième": 8882,
      "tigre": 8883,
      "tiède": 8884,
      "tiare": 8885,
      "tives": 8886,
      "tigres": 8887,
      "tièdes": 8888,
      "tiédir": 8889,
      "disons": 8890,
      "dissou": 8891,
      "disante": 8892,
      "disette": 8893,
      "discourir": 8894,
      "dispose": 8895,
      "disposer": 8896,
      "disert": 8897,
      "disconviens": 8898,
      "discrète": 8899,
      "disgra": 8900,
      "disparaît": 8901,
      "distribuer": 8902,
      "discret": 8903,
      "distance": 8904,
      "distribuait": 8905,
      "enfla": 8906,
      "enflèrent": 8907,
      "enfarin": 8908,
      "enfarine": 8909,
      "cherons": 8910,
      "cherie": 8911,
      "chercha": 8912,
      "homici": 8913,
      "homères": 8914,
      "hommages": 8915,
      "puisent": 8916,
      "puisaient": 8917,
      "puissé": 8918,
      "future": 8919,
      "futures": 8920,
      "maintes": 8921,
      "maintient": 8922,
      "maintenait": 8923,
      "rencor": 8924,
      "rengré": 8925,
      "renvoyez": 8926,
      "renverse": 8927,
      "renchérit": 8928,
      "renaissants": 8929,
      "renouvel": 8930,
      "certe": 8931,
      "cercu": 8932,
      "cervant": 8933,
      "cerceau": 8934,
      "cercle": 8935,
      "cerceaux": 8936,
      "ceries": 8937,
      "cerbère": 8938,
      "bond": 8939,
      "bonhomme": 8940,
      "bonnier": 8941,
      "marc": 8942,
      "marne": 8943,
      "marri": 8944,
      "marmit": 8945,
      "marcas": 8946,
      "maréc": 8947,
      "marié": 8948,
      "marquer": 8949,
      "marron": 8950,
      "marmite": 8951,
      "marbres": 8952,
      "marquis": 8953,
      "mariti": 8954,
      "marmelade": 8955,
      "tempêté": 8956,
      "carême": 8957,
      "carté": 8958,
      "carats": 8959,
      "carrait": 8960,
      "carmin": 8961,
      "carpeau": 8962,
      "carnages": 8963,
      "carquois": 8964,
      "carpax": 8965,
      "carnassi": 8966,
      "carrosse": 8967,
      "carrefour": 8968,
      "caravane": 8969,
      "caracolant": 8970,
      "noce": 8971,
      "nobles": 8972,
      "notez": 8973,
      "noyait": 8974,
      "exil": 8975,
      "exem": 8976,
      "extrait": 8977,
      "extrav": 8978,
      "excré": 8979,
      "existe": 8980,
      "excla": 8981,
      "expire": 8982,
      "expier": 8983,
      "examin": 8984,
      "exécu": 8985,
      "exposé": 8986,
      "exige": 8987,
      "existait": 8988,
      "exquise": 8989,
      "excédant": 8990,
      "exhort": 8991,
      "expira": 8992,
      "exauça": 8993,
      "examine": 8994,
      "extermin": 8995,
      "mande": 8996,
      "mance": 8997,
      "manceau": 8998,
      "manqué": 8999,
      "manquent": 9000,
      "manquât": 9001,
      "mandibu": 9002,
      ".......": 9003,
      "vey": 9004,
      "veiller": 9005,
      "velée": 9006,
      "veillé": 9007,
      "velue": 9008,
      "veillant": 9009,
      "veilleraient": 9010,
      "tues": 9011,
      "tuaire": 9012,
      "tumer": 9013,
      "tufs": 9014,
      "tuerie": 9015,
      "mbles": 9016,
      "ecureuil": 9017,
      "fortifiant": 9018,
      "rale": 9019,
      "races": 9020,
      "rares": 9021,
      "radou": 9022,
      "racont": 9023,
      "rachet": 9024,
      "racontait": 9025,
      "raretés": 9026,
      "radote": 9027,
      "raffiner": 9028,
      "ûtes": 9029,
      "austère": 9030,
      "fronde": 9031,
      "frété": 9032,
      "frisant": 9033,
      "fring": 9034,
      "fronder": 9035,
      "froissée": 9036,
      "frottant": 9037,
      "outil": 9038,
      "outait": 9039,
      "outons": 9040,
      "outils": 9041,
      "outée": 9042,
      "ulant": 9043,
      "ulés": 9044,
      "ultra": 9045,
      "nix": 9046,
      "nide": 9047,
      "niche": 9048,
      "nible": 9049,
      "nids": 9050,
      "nieuse": 9051,
      "nifleur": 9052,
      "nivelle": 9053,
      "nièce": 9054,
      "nicherait": 9055,
      "nicaise": 9056,
      "nicolas": 9057,
      "fiture": 9058,
      "tessence": 9059,
      "empresse": 9060,
      "empare": 9061,
      "emprein": 9062,
      "empennée": 9063,
      "empanach": 9064,
      "empoigne": 9065,
      "phée": 9066,
      "phile": 9067,
      "phaéton": 9068,
      "phebus": 9069,
      "orteil": 9070,
      "orteblan": 9071,
      "osez": 9072,
      "oseille": 9073,
      "abler": 9074,
      "veneur": 9075,
      "venelle": 9076,
      "venaient": 9077,
      "vengé": 9078,
      "veniez": 9079,
      "vendeur": 9080,
      "vengée": 9081,
      "voyé": 9082,
      "lées": 9083,
      "léance": 9084,
      "lébore": 9085,
      "lévriers": 9086,
      "brus": 9087,
      "brille": 9088,
      "broc": 9089,
      "brode": 9090,
      "braillar": 9091,
      "brillant": 9092,
      "broutèrent": 9093,
      "bronze": 9094,
      "broutons": 9095,
      "instin": 9096,
      "instants": 9097,
      "insistance": 9098,
      "tempsyco": 9099,
      "agent": 9100,
      "agance": 9101,
      "agît": 9102,
      "agisse": 9103,
      "agiles": 9104,
      "agissant": 9105,
      "agacé": 9106,
      "agenou": 9107,
      "couper": 9108,
      "couplet": 9109,
      "coupables": 9110,
      "coupées": 9111,
      "oyait": 9112,
      "oyèrent": 9113,
      "trouvons": 9114,
      "trouvaient": 9115,
      "trouvassent": 9116,
      "entrez": 9117,
      "entreprit": 9118,
      "entrepris": 9119,
      "entrerait": 9120,
      "entrefaite": 9121,
      "entretiens": 9122,
      "entrefaites": 9123,
      "entretint": 9124,
      "entremê": 9125,
      "entretenez": 9126,
      "entretiennent": 9127,
      "entreprendrai": 9128,
      "vieillir": 9129,
      "vieillit": 9130,
      "lone": 9131,
      "médis": 9132,
      "mélo": 9133,
      "métri": 9134,
      "mécé": 9135,
      "mégarde": 9136,
      "médisant": 9137,
      "méchef": 9138,
      "méfie": 9139,
      "mérique": 9140,
      "mécontents": 9141,
      "méchante": 9142,
      "mémoires": 9143,
      "méridar": 9144,
      "métempsyco": 9145,
      "pleuvant": 9146,
      "voue": 9147,
      "voux": 9148,
      "voué": 9149,
      "vouer": 9150,
      "voudrez": 9151,
      "laitue": 9152,
      "jument": 9153,
      "jupe": 9154,
      "juges": 9155,
      "jugée": 9156,
      "lopin": 9157,
      "logée": 9158,
      "logés": 9159,
      "locut": 9160,
      "nonnes": 9161,
      "nonchal": 9162,
      "nonnettes": 9163,
      "metay": 9164,
      "metamorph": 9165,
      "mettons": 9166,
      "breux": 9167,
      "bretagne": 9168,
      "dras": 9169,
      "drille": 9170,
      "droie": 9171,
      "dromad": 9172,
      "animer": 9173,
      "douces": 9174,
      "doucet": 9175,
      "doubles": 9176,
      "doutez": 9177,
      "doublé": 9178,
      "doubla": 9179,
      "douzaine": 9180,
      "huet": 9181,
      "huis": 9182,
      "huche": 9183,
      "huée": 9184,
      "humour": 9185,
      "humait": 9186,
      "huppe": 9187,
      "huissier": 9188,
      "hupp": 9189,
      "husale": 9190,
      "humbles": 9191,
      "séjours": 9192,
      "séques": 9193,
      "séduire": 9194,
      "séparer": 9195,
      "sérieux": 9196,
      "versait": 9197,
      "versaire": 9198,
      "versets": 9199,
      "sorti": 9200,
      "sorts": 9201,
      "sortait": 9202,
      "sortis": 9203,
      "sortons": 9204,
      "sortaient": 9205,
      "sortie": 9206,
      "sortilèges": 9207,
      "tourné": 9208,
      "tourière": 9209,
      "tournez": 9210,
      "tourna": 9211,
      "tournent": 9212,
      "tourterelles": 9213,
      "lerai": 9214,
      "laisserait": 9215,
      "cules": 9216,
      "cube": 9217,
      "culer": 9218,
      "cuide": 9219,
      "culateur": 9220,
      "cupides": 9221,
      "cueillir": 9222,
      "onner": 9223,
      "onnant": 9224,
      "onnaire": 9225,
      "onnés": 9226,
      "onnaise": 9227,
      "portent": 9228,
      "porteur": 9229,
      "portaux": 9230,
      "portés": 9231,
      "portants": 9232,
      "portât": 9233,
      "portail": 9234,
      "portions": 9235,
      "portiez": 9236,
      "valu": 9237,
      "valable": 9238,
      "valeure": 9239,
      "nuisit": 9240,
      "nuiront": 9241,
      "partait": 9242,
      "partisans": 9243,
      "opâtre": 9244,
      "opposé": 9245,
      "opina": 9246,
      "opprime": 9247,
      "opolis": 9248,
      "opératri": 9249,
      "oppement": 9250,
      "empara": 9251,
[...]
